#version: 0.2
u n</w>
a n
n e</w>
e s</w>
u ne</w>
p o
e n
o u
d e</w>
m m
po s
& a
pos ;</w>
&a pos;</w>
a r
an t</w>
h o
e u
mm e</w>
c h
l e</w>
e n</w>
o n
v e
u r</w>
t r
q u
a i
e t</w>
d an
d &apos;</w>
dan s</w>
en t</w>
s ur</w>
t i
ho mme</w>
a ve
d es</w>
s e</w>
t e</w>
ave c</w>
e r
o n</w>
o i
a s
a u
r e</w>
e s
f e
l a</w>
r i
b l
eu x</w>
i l
d e
s on
g ar
s i
a l
a u</w>
g e</w>
fe mme</w>
r s</w>
r e
l &apos;</w>
r ou
d eux</w>
e r</w>
p l
j ou
c ou
p e
o r
d i
r o
t s</w>
es t</w>
a t
n es</w>
qu e</w>
p er
e m
mm es</w>
u e</w>
r t</w>
l es</w>
m ar
per son
as si
b ou
p e</w>
j e
p ar
i n
il le</w>
tr e</w>
eu r</w>
t en
é e</w>
po r
l i
ch i
t ant</w>
c o
ai n</w>
p r
bl an
ch e</w>
t u
t a
e au</w>
oi r</w>
v i
re gar
a m
b al
v ant</w>
o t
e t
gar ç
bou t</w>
t an
en f
de bout</w>
e l
person nes</w>
son t</w>
u i
s on</w>
f ai
t es</w>
p i
r a
eu rs</w>
je une</w>
e i
di s</w>
tan dis</w>
de vant</w>
ho mmes</w>
d u</w>
f ille</w>
h i
pe ti
g rou
grou pe</w>
garç on</w>
assi s</w>
en s</w>
p a
chi en</w>
b le</w>
t ou
v ê
qu &apos;</w>
s es</w>
oi s</w>
r ue</w>
s a
rou ge</w>
c i
- s
é l
-s hi
t é</w>
è re</w>
b r
por tant</w>
pl a
n oir</w>
s ant</w>
e u</w>
vê t
o l
mar ch
s u
t -shi
blan c</w>
l o
po ur</w>
c e</w>
au x</w>
è s</w>
tr a
t-shi rt</w>
p ho
l u
an ts</w>
d é
s ou
s te</w>
s au
regar d
a g
g ens</w>
ch e
tr ois</w>
ai l
tr ain</w>
ve r
c ô
bl eu</w>
fe mmes</w>
fai t</w>
cou r
m ent</w>
r an
b e</w>
enf ant</w>
enf ants</w>
t er
p ro
pr ès</w>
é s</w>
s a</w>
qu i</w>
ch em
che v
tu re</w>
ti ent</w>
cô té</w>
chem i
c on
peti t</w>
m on
d es
r es</w>
pho t
l on
regar de</w>
au tre</w>
é ri
c u
s em
et te</w>
l a
m e</w>
m an
m i
n i
b o
b â
i l</w>
jou e</w>
c as
en d
f on
s &apos;</w>
a p
et tes</w>
ten ant</w>
person ne</w>
g ran
el le</w>
on s</w>
ti on</w>
bal l</w>
qu el
vêt u</w>
n oi
il l
jou ant</w>
ai r</w>
en ts</w>
bl eu
ei l</w>
v él
pa r</w>
u si
j a
ar ri
o m
f i
f il
a d
as i
j eu
a n</w>
r é
phot o</w>
ch a
ta ble</w>
p an
f ou
ja une</w>
chemi se</w>
l eurs</w>
tra v
qu es</w>
jeu nes</w>
e x
bâ ti
vél o</w>
ho rs</w>
a ti
t ent</w>
er s</w>
ve rt</w>
u l
n ei
jou ent</w>
peti te</w>
on n
lo rs</w>
regard ant</w>
t oir</w>
de hors</w>
pla n</w>
bâti ment</w>
tr ot
v oi
p as
mar che</w>
lu n
d er
f o
blan che</w>
lun ettes</w>
a l</w>
g ri
ve ste</w>
u s
b at
s k
t al
qu a
assi se</w>
su s</w>
trot toir</w>
tou t</w>
f or
s ol
sou ri
c ho
des sus</w>
b re</w>
fai sant</w>
sau te</w>
regard ent</w>
chev eux</w>
b ar
b an
or an
s ent</w>
ê te</w>
o s</w>
fou le</w>
trav ail
bal l
co l
n s</w>
ri ère</w>
o b
pe au</w>
march ant</w>
der rière</w>
c l
pla ge</w>
sem ble</w>
g u
m é
bleu e</w>
por te</w>
c a
â g
l ant</w>
tr es</w>
è re
g es</w>
es c
b u
g ui
é es</w>
b as
cou rt</w>
s o
h er
nei ge</w>
c ar
è ne</w>
b or
ball on</w>
pr en
m ain</w>
ve rs</w>
a c
ère -
arri ère-
ro se</w>
quel que</w>
fo ot
usi eurs</w>
pl usieurs</w>
b i
co m
arrière- plan</w>
co s
cho se</w>
t éri
tou r</w>
t ar
au tres</w>
fil les</w>
em ent</w>
v e</w>
gran d</w>
br un</w>
asi ati
g ne</w>
ten ue</w>
t ai
noi re</w>
s er
r n
b é
her be</w>
h au
oran ge</w>
ar d</w>
tr ave
h a
pr é
march ent</w>
sou s</w>
é qu
s tr
c s</w>
t eau</w>
qua tre</w>
ver te</w>
chi ens</w>
c r
s se</w>
- dessus</w>
qu ot
quot ;</w>
eu se</w>
& quot;</w>
gui tar
cha peau</w>
a ge</w>
cos tu
foot ball</w>
il i
v ille</w>
ch an
c or
téri eur</w>
m ail
cou p
su r
mail lo
m ai
ter r
m ur</w>
r es
l eur</w>
c am
él é
lon g
b a
au tour</w>
ro ch
bl on
n ent</w>
d s</w>
sol eil</w>
t e
l an
ro be</w>
bal le</w>
r on</w>
n ou
fon t</w>
g ro
o c
b ill
i m
guitar e</w>
c ui
b e
r ant</w>
m ot
garç ons</w>
ra p
end ant</w>
s c
par c</w>
s al
cour se</w>
assi ses</w>
sa ge</w>
sa c</w>
b ois</w>
o y
m at
p u
m es</w>
esc al
f f
s ho
qu ette</w>
mar ron</w>
en semble</w>
sc ène</w>
m ag
at ten
c an
équ i
ter re</w>
l ent</w>
ha bill
f a
ch es</w>
t on</w>
u ni
pan tal
terr ain</w>
lon g</w>
jou eur</w>
bl i
t at
gar s</w>
t élé
ou v
ch am
jou rn
maillo t</w>
ban c</w>
vêt ue</w>
str u
pho ne</w>
p en
e l</w>
u s</w>
tr i
s s
asiati que</w>
c li
ui t</w>
sk at
di s
ê tre</w>
r am
m ili
i e</w>
bor d</w>
t ête</w>
lu i</w>
hau t</w>
c h</w>
ra y
b é</w>
je an</w>
pantal on</w>
s ci
vi ol
u ti
t er</w>
ch au
voi ture</w>
gri s</w>
em ents</w>
l e
r ri
tr ès</w>
costu me</w>
cas que</w>
uti li
sem bl
pl an
d os</w>
t au
rou te</w>
pe c
e ts</w>
u es</w>
mon ta
m a
cas quette</w>
vêt ements</w>
sho rt</w>
nou rri
coup le</w>
p er</w>
bé bé</w>
bo ard</w>
s pec
c y
ch ar
gro s</w>
chev al</w>
po us
n om
mat ch</w>
at tra
pl ei
n o
re m
ex térieur</w>
c er
bat eau</w>
b ri
oi t</w>
man g
cui si
trave r
pren d</w>
br es</w>
é c
gran de</w>
en tre</w>
b ra
sau tant</w>
oi s
am éri
télé phone</w>
rou ges</w>
pré par
p endant</w>
o t</w>
sci ne</w>
pi scine</w>
ouv ri
mag asi
magasi n</w>
r as
vê tu
sa ble</w>
oi re</w>
nourri ture</w>
cham p</w>
m usi
pe l
so l</w>
in t</w>
l er</w>
a de</w>
w e
s or
mili eu</w>
cour ant</w>
pos e</w>
as se</w>
améri c
j u
a f
cou p</w>
au -dessus</w>
ai se</w>
g n
fa ce</w>
f l
ad ul
i er</w>
ar bre</w>
skat e
s we
po u
on t</w>
in g</w>
cy cli
ar ti
s tes</w>
fai re</w>
é r
t eur</w>
man teau</w>
g ra
bas e
par le</w>
ti que</w>
g i
v re</w>
pas se</w>
pro m
noi rs</w>
g il
con tre</w>
po n
f r
des c
d eur</w>
bra s</w>
s an
pu bli
m ou
journ ée</w>
ai re</w>
skate board</w>
e ant</w>
col or
blan cs</w>
s er</w>
res tau
pi e
cour ent</w>
ap par
al long
vi sage</w>
o u</w>
t o
vi eil</w>
v é
t or
p é
il s</w>
oi n</w>
ni s</w>
c k
âg é</w>
ui e</w>
s ta
li t</w>
v ol
m ents</w>
f rap
bas k
s en
march é</w>
l è
c le</w>
c in
équi pe</w>
blon de</w>
souri ant</w>
de r</w>
c ti
ten nis</w>
restau rant</w>
b ain</w>
po li
e aux</w>
arri ère</w>
mi cr
micr o</w>
sal le</w>
par ti
c tion</w>
y ant</w>
souri t</w>
cam i
d onn
bal an
atten d
por table</w>
oc é
t ée</w>
océ an</w>
n at
ras sembl
pi er
mai ns</w>
col li
t om
g la
monta gne</w>
d or
chemi n</w>
par -dessus</w>
cin q</w>
a t</w>
j et</w>
for me</w>
r u
pi ste</w>
nom br
ar bres</w>
ti er</w>
p ri
mar i
mot o</w>
tou r
il les</w>
f leurs</w>
tr ou
po i
g ée</w>
end re</w>
d ra
v ag
ac c
âg ée</w>
ten te</w>
rem pl
ob je
m o
je u</w>
eu le</w>
cuisi ne</w>
améric ain</w>
ui ts</w>
travail le</w>
n u
fon c
el les</w>
ê t</w>
g li
f en
plei n</w>
base ball</w>
t te</w>
be au
trave rs</w>
pl uie</w>
ti en
in stru
co mm
par a
o ù</w>
o g
dé bar
ch er</w>
beau coup</w>
s su
par lant</w>
l é
a près</w>
ten ues</w>
f es
ou se</w>
pi è
eu ses</w>
vêtu s</w>
quel qu&apos;</w>
g en
p ul
v en
jou er</w>
tr an
s sant</w>
attra per</w>
n u</w>
appar eil</w>
n uit</w>
jou eurs</w>
cl ô
travail lant</w>
ri s
ray é</w>
p ê
fi gu
en tr
c es</w>
am i
tien nent</w>
jou et</w>
f au
p es</w>
ouvri ers</w>
m in
bu s</w>
ve r</w>
dis cu
cami on</w>
plan che</w>
s e
habill é</w>
débar deur</w>
pe aux</w>
on g
ba s</w>
ram pe</w>
li vre</w>
f fi
pi er</w>
travail lent</w>
sur f
piè ce</w>
or di
gu eule</w>
en nei
an im
vi ère</w>
roch er</w>
ri vière</w>
po m
in térieur</w>
cu le</w>
son s</w>
re au</w>
bleu s</w>
blan ches</w>
peti ts</w>
p au
m or
bl es</w>
b onn
ai e</w>
é cou
viol et</w>
ssu res</w>
spec tat
pro d
po rt</w>
musi que</w>
adul tes</w>
b ois
tai re</w>
pos ent</w>
cycli ste</w>
cou rs</w>
br u
è res</w>
s tan
quel ques</w>
pa s</w>
lan c
fen être</w>
b on
b es</w>
tor se</w>
swe at</w>
r ts</w>
pier re</w>
ordi nat
e y</w>
s é
pos ant</w>
tra î
po l
mai son</w>
m i</w>
ill ée</w>
et t
dan se</w>
ch aise</w>
v ent</w>
spectat eurs</w>
pon t</w>
la c</w>
ro s
balan ç
b in
utili se</w>
pl us</w>
b ul
ri t</w>
f u
an te</w>
z o
v a
pren ant</w>
cor de</w>
clô ture</w>
chan te</w>
pel ouse</w>
m as
en tour
cti f</w>
y m
p ant</w>
obje ctif</w>
ma chi
ten d
re aux</w>
f eu
char i
publi c</w>
pe in
pa ti
gil et</w>
com bin
bonn et</w>
asiati ques</w>
ob jet</w>
march es</w>
tr o</w>
n ag
in di
combin ai
al i
tu res</w>
s no
f ête</w>
costu mes</w>
ch é</w>
ol esc
f ris
b ei
ai ne</w>
ad olesc
zo ne</w>
stan d</w>
pa y
n ett
gla ce</w>
balanç oire</w>
sno w
ran donn
p s</w>
n eau</w>
es sa
vag ue</w>
tai ne</w>
t ons</w>
r ée</w>
pol o</w>
mé tro</w>
mang er</w>
f am
ai s</w>
po int</w>
mon tre</w>
figu re</w>
e -
sa cs</w>
chari ot</w>
ap pr
allong é</w>
trou ve</w>
ti s</w>
regar der</w>
poli ci
f fe
escal ade</w>
ch ant</w>
ai l</w>
a vi
re cou
pie ds</w>
g nes</w>
cou leur</w>
par lent</w>
p il
n ement</w>
ho ck
for êt</w>
cu l
bâ ton</w>
as tique</w>
oran ges</w>
machi ne</w>
bri ques</w>
sk i
fam ille</w>
f la
chau ssures</w>
b elle</w>
pan car
ordinat eur</w>
j am
f ré
ci r
ci el</w>
ca f
bei ge</w>
pr endre</w>
pas sent</w>
p in
oi g
gra ffi
es s
colli ne</w>
co w
u re</w>
tu di
qua i</w>
qu en
og rap
em br
al o
a v
phot ograp
parti ci
long s</w>
j au
fré quen
escal ier</w>
d re</w>
d r
ai sse</w>
vi eux</w>
ver re</w>
tou rn
t -
ri e</w>
pul l</w>
m oy
jau nes</w>
g er</w>
dé o</w>
car reaux</w>
can ap
ti re</w>
t h
pen te</w>
pe int</w>
fon taine</w>
cu ri
con d
cas ques</w>
al l
u r
on ne</w>
mé tal
f s</w>
canap é</w>
x i
phot os</w>
k a
ennei gée</w>
combinai son</w>
c ette</w>
v o
t és</w>
sol e
prom en
métal li
i mm
en sole
en ne</w>
d oig
ag es</w>
a vant</w>
so mm
pla ce</w>
noi res</w>
caf é</w>
bru ns</w>
br an
au che</w>
v ée</w>
tou s</w>
ti onn
t-shi rts</w>
t eu
si on</w>
prépar e</w>
para pluie</w>
par mi</w>
hock ey</w>
fau teu
cou r</w>
r o</w>
pie d</w>
om bre</w>
nu mé
mi té</w>
graffi tis</w>
gen ou
en traî
d o
- ball</w>
vi e
v end
sor te</w>
g ent</w>
ensole illée</w>
dé fil
desc en
d ont</w>
bo y</w>
blon d</w>
ar r
alo rs</w>
él e
vi f</w>
utili sant</w>
trav ail</w>
sau t</w>
pro fi
pa pier</w>
e ffe
cou ver
ai ses</w>
s tat
re r</w>
fris be
c e
bleu es</w>
ail le</w>
somm et</w>
s port</w>
pré sen
gil ets</w>
é tudi
t eurs</w>
r on
pê che</w>
ouvri er</w>
n er</w>
frisbe e</w>
fr uits</w>
effe c
dan sent</w>
bou che</w>
œ u
t y
t em
o ri
musi ci
l oin</w>
g a
fe u</w>
c eau</w>
bask et</w>
bar be</w>
attend ent</w>
ta l</w>
ré par
numé ro</w>
nombr eux</w>
n e
f er
curi té</w>
bo ar
ai rs</w>
adul te</w>
y eux</w>
vêtu es</w>
stat ue</w>
por tent</w>
pan neau</w>
p ui
genou x</w>
frap per</w>
di ff
bé ton</w>
attend ant</w>
ç ant</w>
ta s</w>
ta bli
t oit</w>
spec ta
pous se</w>
pl astique</w>
pi s</w>
pas sant</w>
p ère</w>
n us</w>
n ant</w>
hi ver</w>
for mes</w>
diff ér
cycli stes</w>
bu reau</w>
è ge</w>
xi mité</w>
vé hi
v ue</w>
uni forme</w>
swe at
pro ximité</w>
plei ne</w>
descen d</w>
atten d</w>
ym n
vol le
g ymn
g ol
d am
bou te
ai ns</w>
é ch
tr on
sweat -shi
stru c
man i
m et</w>
li sant</w>
instru ments</w>
gri m
co pe</w>
t é
r é</w>
n age</w>
moy en</w>
m ère</w>
li gne</w>
k i
g g
fo ot</w>
essa yant</w>
dan sant</w>
ci gar
at ta
specta cle</w>
roch ers</w>
pancar te</w>
mon te</w>
mi c
m ê
m ul
ju pe</w>
feu illes</w>
dra peau</w>
di t</w>
cl ai
é vé
évé nement</w>
â ge</w>
uni formes</w>
si x</w>
s son</w>
monta gnes</w>
journ al</w>
cl air</w>
bask et
sweat-shi rt</w>
sau tent</w>
s -
maillo ts</w>
j ar
embr as
d ée</w>
con cer
tri ne</w>
traver se</w>
ti n
sé curité</w>
ré uni
ro l
pren nent</w>
métalli que</w>
m er</w>
m ant</w>
fréquen tée</w>
défil é</w>
ch aises</w>
acc rou
ver ts</w>
ter ie</w>
struc ture</w>
s sent</w>
prom ène</w>
pl i
nombr euses</w>
mon tr
mang eant</w>
l s</w>
jar di
gro sse</w>
fonc és</w>
c ap
vél os</w>
ta pis</w>
souri ent</w>
sau ter</w>
h u
es pa
dor t</w>
des si
concer t</w>
com pé
ai de</w>
é pau
ve ment</w>
tat ou
snow boar
sk i</w>
s é</w>
ro déo</w>
rempl i</w>
re pas</w>
o te</w>
lé gu
lon s</w>
in ter
fauteu il</w>
cl asse</w>
cha peaux</w>
c oin</w>
bi ère</w>
ë l</w>
pi é
ob ser
nom bre</w>
lè ve</w>
lanc er</w>
l ement</w>
b u</w>
équ ili
éle c
éc rit</w>
é tant</w>
voi tures</w>
v age</w>
ta tion</w>
sen tier</w>
pi ers</w>
p re
mi er</w>
m u
j eux</w>
habill ée</w>
compé ti
co mme</w>
c ad
ag i
è me</w>
â teau</w>
pui s</w>
pan ier</w>
no ël</w>
lan ce</w>
gu es</w>
gn ant</w>
de puis</w>
br une</w>
b ot
é clai
v res</w>
to bo
tobo gg
tobogg an</w>
si onn
san s</w>
ni que</w>
m et
légu mes</w>
la ge</w>
g eant</w>
eu r
en ce</w>
de au</w>
dan s
compéti tion</w>
c lo
ba r</w>
a ch
équili bre</w>
tabli er</w>
pl at
p ent</w>
instru ment</w>
gli sse</w>
g é</w>
g auche</w>
d onne</w>
cow -
ch er
pro fes
k in
j us
g ants</w>
entour é</w>
d al
a yant</w>
su s
sa tion</w>
r ent</w>
o re
mul ti
fa ç
dé ser
d é</w>
cigar ette</w>
chan tant</w>
bu vant</w>
blon ds</w>
bar bu</w>
af fi
vie ille</w>
skat eur</w>
ri c
pil ote</w>
pay sage</w>
mê me</w>
lu mi
fon d</w>
f al
cou leurs</w>
ad ver
voi e</w>
sur f</w>
rou lant</w>
nett oy
mor ceau</w>
m us
imm eu
dra peaux</w>
dam e</w>
cou pe</w>
color és</w>
bot tes</w>
bat tent</w>
bal lons</w>
at h
appr ête</w>
é té</w>
âg ées</w>
véhi cule</w>
v es</w>
tem ps</w>
sem ent</w>
s cul
scul p
roch euse</w>
pl ong
oi te</w>
long ue</w>
habill és</w>
gri se</w>
frap pe</w>
en tes</w>
doig t</w>
cô te</w>
c ra
bu t</w>
arti ste</w>
ami s</w>
ver tes</w>
u res</w>
traver sent</w>
tend ue</w>
te aux</w>
stru ction</w>
prod uits</w>
pos i
po teau</w>
pl oy
p h
o r</w>
o i</w>
mar ti
jardi n</w>
fal aise</w>
di tionn
bi en</w>
as te</w>
ta bles</w>
ta bl
s eau</w>
qu i
photograp h
om b
m em
l ing</w>
k ing</w>
i r</w>
el s</w>
con struction</w>
bo w
bi kin
af ric
y a
tran s
t es
snowboar deur</w>
ros s</w>
ro -
rassembl ent</w>
prépar ant</w>
peti tes</w>
p al
nou ve
ju ste</w>
i ste</w>
eu re</w>
en ti
bâti ments</w>
boute ille</w>
b er
b ai
ar ts</w>
af ro-
u che</w>
tra ditionn
tom b
ti rant</w>
surf eur</w>
ro bes</w>
pous s
pein ture</w>
mot oc
marti aux</w>
man ge</w>
gri l
fonc é</w>
d a
co lo
as s
ér a</w>
éc la
vi trine</w>
vi er</w>
vend eur</w>
v é</w>
rou l
polici er</w>
pe i
par ler</w>
musici ens</w>
fil s</w>
en ou
cour ses</w>
cam éra</w>
ca de</w>
bow ling</w>
ra ge</w>
pou r
p at
mas que</w>
in s</w>
cow- boy</w>
con ver
chev aux</w>
c teur</w>
c oi
c entre</w>
al im
éc ra
ta ge</w>
ser vi
n n
mat éri
mang ent</w>
li re</w>
g ue</w>
es tre</w>
couver ture</w>
chan tier</w>
cap uche</w>
c les</w>
bou le</w>
b ro
élec tri
traver sant</w>
ray ée</w>
prépar ent</w>
pen che</w>
pe u</w>
pa vée</w>
lon gues</w>
in s
gran ds</w>
g é
con tr
all ée</w>
écla bou
éch elle</w>
é tendue</w>
ski eur</w>
ro ses</w>
qu ant</w>
ou verte</w>
m en
li eu</w>
h eur
fil et</w>
espa ce</w>
colli er</w>
cir cu
ag enou
âg és</w>
vi ent</w>
ui sant</w>
t oi
s eu
r en
qu et</w>
pre mier</w>
pe lu
or ch
orch estre</w>
motoc ross</w>
matéri el</w>
man ches</w>
ka ya
immeu ble</w>
i ers</w>
fl ot
effec tu
com p
ch in
cer tai
can ne</w>
bul les</w>
bl o
av oir</w>
ai t</w>
écra n</w>
é p
é char
ven d</w>
tr am
si er</w>
ri vage</w>
publi ci
profes sionn
pouss ette</w>
pom piers</w>
photograph e</w>
p eu
l am
g on
différ entes</w>
desc endant</w>
ch ée</w>
bri l
bikin i</w>
b ag
avi on</w>
an de</w>
é tr
vo le</w>
vag ues</w>
v ou
s oi
rou le</w>
rempl ie</w>
r at
pr es
pos é</w>
poi sson</w>
pel le</w>
par king</w>
ill é</w>
g âteau</w>
fou l
em ploy
dr oite</w>
discu tent</w>
c â
bat terie</w>
base -ball</w>
au tom
ap pu
allong ée</w>
adolesc ent</w>
a tion</w>
équi pes</w>
é tran
é co
v endant</w>
s ses</w>
s ombre</w>
ri r</w>
po in
min i
mar at
marat ho
d ant</w>
cou vert</w>
coi ff
c ré
c i</w>
a ff
w a
viol ette</w>
par t</w>
o l</w>
march er</w>
gi r
ess aie</w>
es te</w>
d ou
conver sation</w>
clo w
chau ss
c é
bois sons</w>
ar ds</w>
viol on</w>
traver ser</w>
terr asse</w>
tau reau</w>
t on
s co
recou verte</w>
pro fon
oi e</w>
l aisse</w>
j o
cou cher</w>
che f</w>
ch ent</w>
c en
ba se</w>
ati que</w>
équi pe
él oi
ti ss
tabl eau</w>
t ue</w>
sur pl
r et</w>
p â
mani fes
m ée</w>
eu sement</w>
end r
end or
dé cor
di re
comp toir</w>
cli ents</w>
cas cade</w>
c al
bou e</w>
ar t</w>
anim ée</w>
vi si
pro te
posi tion</w>
polici ers</w>
pe tte</w>
pau se</w>
ois eau</w>
montr ant</w>
mi r
mari age</w>
escal ad
cti ons</w>
bois son</w>
bo î
ar gent</w>
an di
affi che</w>
a te</w>
étudi ants</w>
échar pe</w>
é n
va te</w>
u m</w>
tai res</w>
su per
sor t</w>
re présen
pré ci
pelu che</w>
pa gne</w>
mari ée</w>
h ar
el lement</w>
d ents</w>
cra vate</w>
cor des</w>
con str
color é</w>
ci ment</w>
chau ve</w>
attra pe</w>
ath lè
an s</w>
acc roch
t o</w>
t asse</w>
s ui
s sons</w>
rol ler</w>
rassembl ées</w>
randonn ée</w>
promen ant</w>
ou ti
obje ts</w>
jou euse</w>
ins tal
er ci
d ent</w>
ch u
ar bi
électri que</w>
tu y
ti r</w>
sus pen
surf e</w>
si eur</w>
s ei
rou sse</w>
recou vert</w>
pl u
n é</w>
mon sieur</w>
mic ros
l in
k i</w>
foul ard</w>
entr e
dé gui
cui r</w>
cour eurs</w>
cour eur</w>
bar be
ai rie</w>
aff ron
adolesc ents</w>
é gli
tr ou</w>
ti fs</w>
sta tion</w>
sou ff
sau ve
r ui
qu er</w>
po m</w>
oc cu
mé tal</w>
mir oir</w>
ma qu
jou ets</w>
je tte</w>
gol f</w>
en -
dal es</w>
cond uit</w>
c ue</w>
c er</w>
c &apos;</w>
barbe cue</w>
b an</w>
arr ê
anim al</w>
- pom</w>
él è
vol ant</w>
ve stes</w>
sk ate</w>
sembl ent</w>
sco ot
ri re</w>
pous si
pom -pom</w>
pas sage</w>
par oi</w>
ob sta
mot ard</w>
mem bres</w>
maratho n</w>
coup er</w>
clow n</w>
chemi sier</w>
ca v
c al</w>
ba t</w>
appr ê
ap préci
am u
ac cor
a z
a s</w>
écou teurs</w>
volle y</w>
volle y
v oir</w>
tu r
suspen du</w>
sta de</w>
sal on</w>
ri ant</w>
promen ade</w>
pier res</w>
par as
n avi
mé di
la tion</w>
en sei
discu tant</w>
cé ré
b rou
arbi tre</w>
én or
vi n</w>
t él
t aille</w>
san dales</w>
s ée</w>
rem or
ra pi
qu ettes</w>
pr airie</w>
p n
man ège</w>
jus qu&apos;</w>
gra vi
g e
di ri
di en</w>
cuisi ni
c k</w>
bl ement</w>
b y</w>
appu y
accor dé
épau les</w>
égli se</w>
è nent</w>
vi ve</w>
vi ande</w>
tour ne</w>
tou t-
surpl omb
so li
s tique</w>
s aire</w>
ru elle</w>
profon de</w>
pous sant</w>
photograp hi
micros cope</w>
li er</w>
k ar
j ong
i ne</w>
habill ées</w>
fou r
endr oit</w>
de aux</w>
cour ts</w>
coup ant</w>
c el
balan ce</w>
b oit</w>
am bul
v oy
v a</w>
tu nn
tunn el</w>
te in
souri ante</w>
snow board</w>
seu l</w>
qu arti
quarti er</w>
prote ction</w>
plan tes</w>
p i</w>
l et
jam be</w>
gon fla
fu me</w>
effectu ant</w>
déser t</w>
cou rir</w>
colo re</w>
cha t</w>
c lu
c elle</w>
b re
at oire</w>
an d</w>
accordé on</w>
é ro
tuy au</w>
tra de</w>
tr o
tou tes</w>
surplomb ant</w>
si gne</w>
ri ent</w>
représen tant</w>
rempl i
ra quette</w>
r ues</w>
pay s</w>
p y
mou vement</w>
la bor
kaya k</w>
ka ki</w>
indi vi
in spec
il lage</w>
ex am
en te</w>
cer cle</w>
can o
bl ou
bat te</w>
b arrière</w>
am us
vi rage</w>
tél es
tron c</w>
ten d</w>
ss eau</w>
sembl ant</w>
sculp ture</w>
sauve tage</w>
réuni s</w>
remor que</w>
par k</w>
pa p
p éri
onn ette</w>
multi colore</w>
mon ie</w>
m é</w>
labor atoire</w>
l le</w>
g ers</w>
g ag
entr ée</w>
end ent</w>
donn ant</w>
chin ois</w>
ch és</w>
c et</w>
c aisse</w>
bâ tons</w>
bal us
bal a
b ad
ap pro
an tes</w>
alim en
accrou pi</w>
ê tes</w>
énor me</w>
é cha
z on</w>
x o
téles cope</w>
travail ler</w>
tram poli
trampoli ne</w>
si este</w>
scoot er</w>
s por
rou lent</w>
re pose</w>
ran gée</w>
profi tant</w>
poli ce</w>
pi qu
nag eant</w>
mic ro
kar at
karat é</w>
je tée</w>
j oy
h ô
g le</w>
fi que</w>
eu e</w>
céré monie</w>
color ée</w>
c on</w>
boî te</w>
bor dée</w>
basket -ball</w>
ap p
ai res</w>
épau le</w>
écha fau
vêt ement</w>
volley ball</w>
vi de</w>
v endre</w>
tou ri
sa xo
s eur</w>
rui sseau</w>
ra tion</w>
prom ènent</w>
prod uit</w>
pié tons</w>
pi n</w>
partici pant</w>
og g
l ave
j ogg
i que</w>
grim pe</w>
gir ls</w>
g nent</w>
fu mant</w>
fr oi
fes ti
escal iers</w>
effec tue</w>
di e</w>
c ent</w>
bo x
bat teur</w>
balus trade</w>
at eur</w>
al lu
ai si
w i
tout- petit</w>
tou che</w>
tiss u</w>
ss é</w>
soli taire</w>
soi rée</w>
sa le</w>
s oit</w>
roul ettes</w>
pri n
p é</w>
oi si
nettoy ant</w>
nett oie</w>
ne z</w>
mo tifs</w>
m és</w>
m eu
heur eux</w>
hau ts</w>
gymn a
gymna se</w>
g al
fe r</w>
f res
entour ée</w>
endor mi</w>
d î
d enti
chu te</w>
cha î
cam pagne</w>
c ro
b on</w>
ati ons</w>
am i</w>
ali gn
écou te</w>
échafau d
é cu
â ne</w>
voi t</w>
voi ci</w>
u ns</w>
ti f</w>
th ou
thou si
ten ir</w>
tein dre</w>
tan g</w>
ta m
t êtes</w>
se p
sep t</w>
s ty
ré cu
rou x</w>
rou e</w>
ri er</w>
ra le</w>
qu é</w>
pro jet</w>
pr ati
pou belle</w>
p aille</w>
ori en
ob el
mag az
lumi ères</w>
lumi ère</w>
jou r</w>
gar dien</w>
g obel
f ér
exam in
ex ami
exami ne</w>
escalad ant</w>
ennei gé</w>
en thousi
doig ts</w>
desc endent</w>
des sous</w>
color ées</w>
co té</w>
chemi ses</w>
cad re</w>
c la
bro sse</w>
bon dée</w>
bo l</w>
bar re</w>
afro- américain</w>
ach è
a ble</w>
équipe ment</w>
él an
éco le</w>
é chi
ère ment</w>
y or
y er</w>
v éri
v al</w>
utili sent</w>
ti cule</w>
t ex
sur ve
sol da
solda ts</w>
si ège</w>
pl on
pen ché</w>
pei gnant</w>
pas sa
partici pent</w>
pantal ons</w>
pa g
o le</w>
mon tant</w>
mo ment</w>
mili taire</w>
met tant</w>
l ers</w>
jam bes</w>
gymn aste</w>
gonfla ble</w>
gli ssant</w>
gar e</w>
faç ade</w>
er ie</w>
e mm
do cu
d ures</w>
co u</w>
certai ns</w>
ce in
bal aie</w>
as sant</w>
al ier</w>
a br
éloi gne</w>
écou tant</w>
ty pe</w>
tr om
te -
t t</w>
sho rts</w>
ré es</w>
re tourn
randonn eurs</w>
randonn eur</w>
pom pier</w>
po t</w>
piqu e-
p è
obsta cle</w>
o ts</w>
o s
mon tent</w>
march andi
man teaux</w>
m oi
lanc eur</w>
lan çant</w>
jo li
hau tes</w>
hau te</w>
guitar iste</w>
gri l</w>
g ou
fres que</w>
figu res</w>
faç on</w>
dis sant</w>
di vers</w>
cor ps</w>
com bat</w>
ci en</w>
chev au
cano ë</w>
bon dé</w>
bat tant</w>
bal con</w>
b oi
au -
ar i
ar gen
ar e</w>
ap pl
améric ains</w>
ag ent</w>
adver se</w>
accrou pi
ac ro
a éro
é tang</w>
é cos
é car
yor k</w>
wa y</w>
ver d
va che</w>
trav aux</w>
traditionn els</w>
ti vement</w>
ti s
ta bou
t ball</w>
sur face</w>
super marché</w>
souri re</w>
sa vou
répar er</w>
ré fl
ru ban</w>
rassembl és</w>
ram bar
qu eue</w>
pri se</w>
pri s</w>
pla t</w>
parti e</w>
par ta
par cours</w>
p ée</w>
outi ls</w>
ol s</w>
ois eaux</w>
n eur</w>
mon de</w>
mar teau</w>
m an</w>
lin ge</w>
li vres</w>
in g
h al
dé pla
cou v
cou ché</w>
comm erci
ck s</w>
car es
bag ages</w>
arti cles</w>
appl au
app uie</w>
anim aux</w>
améric aine</w>
al pin
ô le</w>
écos s
voi le</w>
v eur</w>
télé pho
tou te</w>
ten tent</w>
tatou age</w>
t ement</w>
sor ti
saxo phone</w>
s il
ru g
profi te</w>
pro je
plat eau</w>
pique- nique</w>
or dures</w>
o ffi
mou sta
li ère</w>
li n</w>
le vant</w>
lan gue</w>
in té
i denti
festi val</w>
di ver
cui t</w>
cow boy</w>
cou l
circu lation</w>
chan tent</w>
ca le</w>
bran dit</w>
bl ouse</w>
b ui
b ati
athlè te</w>
arr êt</w>
ach et
éclabou ssures</w>
è que</w>
w ag
ur bain</w>
ui es</w>
téri eure</w>
trot tin
tra c
tr oisi
troisi ème</w>
toi le</w>
ta pe</w>
t ail
ser elle</w>
sal to</w>
sal o
s eule</w>
réfl échi
qua d</w>
publi que</w>
pr êt</w>
pl uies</w>
pié ton</w>
pi an
pas serelle</w>
pas ser</w>
paras ol</w>
para pluies</w>
ouv re</w>
obser ve</w>
mon ticule</w>
mili taires</w>
mag ni
jogg ing</w>
im age</w>
g rat
frap pant</w>
f an
dé jeu
dire ction</w>
comm ent</w>
ci er</w>
cher che</w>
che z</w>
cav alier</w>
ban dan
at or</w>
an ce</w>
ai ss
affron tent</w>
ad mi
œ ur</w>
vi déo</w>
v tt</w>
ui sent</w>
tr é
tr ouv
touri stes</w>
tom be</w>
ti rer</w>
tam bou
t- être</w>
t oire</w>
sol d
sold at</w>
ser t</w>
salo pette</w>
s és</w>
s uit</w>
rol lers</w>
ro che</w>
py jam
poi s</w>
peu t-être</w>
pat tes</w>
pa vé</w>
p ai
ou fla
oufla ge</w>
ore illes</w>
oi se</w>
oc k
n ée</w>
n g</w>
n eaux</w>
musici en</w>
mot os</w>
m élan
lé g
lu ge</w>
i c
hu mi
g o
g ant</w>
f ran
f ra
f lan
dî ner</w>
di ns</w>
con fér
chev auche</w>
chan teur</w>
car ton</w>
cam ouflage</w>
ca deau</w>
c ri
bala i</w>
b assi
amus ent</w>
ambul ant</w>
élè ves</w>
z z
y e</w>
ver res</w>
tra cteur</w>
tes se</w>
ten tant</w>
tal ons</w>
so f
sof tball</w>
servi ette</w>
re ce
ray ures</w>
rambar de</w>
pyjam a</w>
pian o</w>
p ing</w>
p ain</w>
ordinat eurs</w>
met tre</w>
m e
l ar
ju pes</w>
joy eusement</w>
humi de</w>
fonc ée</w>
fla que</w>
dé tend
différ ents</w>
dan ser</w>
d a</w>
cu les</w>
cr eu
coul oir</w>
cou verte</w>
cham bre</w>
ch eur</w>
b oire</w>
atten tivement</w>
at teindre</w>
ar ène</w>
amu sant</w>
alimen taire</w>
ai ent</w>
éclai rée</w>
éc ri
vi sion</w>
vi sa
trouv ent</w>
trans portant</w>
ti rent</w>
ter min
ten u</w>
tabou ret</w>
surf ant</w>
ski s</w>
s si
rug by</w>
rassembl ement</w>
ra deau</w>
qu ent</w>
pour ch
po di
podi um</w>
plat e-
plate- forme</w>
pi le</w>
para chute</w>
pancar tes</w>
nu ag
mu rs</w>
mari é</w>
lu min
l ou
foot bal
footbal leurs</w>
f é
f ri
f lu
f in
ex position</w>
escal ator</w>
employ és</w>
embr asse</w>
déser te</w>
dor mant</w>
desc endre</w>
de ment</w>
dans euse</w>
d en
cô tés</w>
cond uisant</w>
commerci al</w>
cla vier</w>
chauss ettes</w>
cha c
can i
boi vent</w>
bas se</w>
bandan a</w>
b m
assi ette</w>
all em
ad o
acro bati
a k
z e</w>
ym pi
vi ves</w>
té ti
trottin ette</w>
ta le</w>
ss er</w>
s sion</w>
publici té</w>
professionn elle</w>
poussi ère</w>
poi gn
pi ge
ne w</w>
nat ation</w>
mai s</w>
le ver</w>
le v
her bes</w>
h uit</w>
h ou
g ami
gami n</w>
fréquen té</w>
for m
foot ball
football eur</w>
fi le</w>
feu ille</w>
fer més</w>
en vi
cou stique</w>
cou dre</w>
confér ence</w>
con trac
com pl
co r</w>
clô tu
clu b</w>
chevau chant</w>
chauss ée</w>
cami onnette</w>
c entr
bri que</w>
bal les</w>
bal ade</w>
b eau</w>
au to
atta ché</w>
apprê tant</w>
an ti
af fai
ac com
a coustique</w>
échafaud age</w>
è che</w>
â tre</w>
y s</w>
visa ges</w>
ver se</w>
ur b
ti ons</w>
str i
si tu
sal u
sa pin</w>
s ar
répar e</w>
récu pé
ré ci
res semble</w>
re bord</w>
r us
profi tent</w>
poin te</w>
poi ssons</w>
per cu
per che</w>
partici pe</w>
omb re
o p
mon ter</w>
mari ne</w>
lè vent</w>
lu t
joli e</w>
ja pon
indivi d
har n
gran des</w>
gra dins</w>
gla ces</w>
gar age</w>
fr ont</w>
fi n</w>
f oin</w>
embras sant</w>
discu ter</w>
cr ois
cor pul
co équi
chaî ne</w>
certai nes</w>
car tes</w>
ca bi
c eaux</w>
bé ret</w>
bui ssons</w>
bril lant</w>
blou son</w>
blo cs</w>
basket teur</w>
aéro port</w>
ag ri
ac tion</w>
a éri
û te</w>
éclai ré</w>
é ta
vo l</w>
verd oy
ve au</w>
v ali
tomb er</w>
tin g</w>
ti ère</w>
ti ré</w>
th é
t i</w>
sta tionn
ssu re</w>
sou lève</w>
s eaux</w>
re li
re ad
read lo
readlo cks</w>
ray on</w>
ram e</w>
qu el</w>
pos és</w>
por te-
ot es</w>
ori gi
ol ympi
nettoy er</w>
n au
n &apos;</w>
multi color
multicolor es</w>
mou illé</w>
marchandi ses</w>
manifes tation</w>
lan te</w>
ki os
j ock
individ us</w>
ill on</w>
identi ques</w>
ha bi
gobel et</w>
flu o</w>
enthousi as
employ é</w>
de -
dans eurs</w>
d u
d res
d readlocks</w>
col le
cho ses</w>
cas quettes</w>
c ée</w>
bran dissant</w>
boute illes</w>
bi jou
ber ger</w>
bat eaux</w>
ban cs</w>
autom ne</w>
au di
attra ctions</w>
at e
appuy é</w>
allong és</w>
alim ents</w>
ai dant</w>
afric ains</w>
étran ger</w>
è ges</w>
wag on</w>
vou s</w>
vi tesse</w>
utili ser</w>
ui re</w>
travail leurs</w>
tou cher</w>
to ri
ti ve</w>
ti ques</w>
tai l</w>
sus p
ss ée</w>
sou s-
si èges</w>
réci pi
res semblant</w>
regar d</w>
publici taire</w>
pr ê
pou tre</w>
pos ée</w>
por tr
pn eu
plan ches</w>
pla fond</w>
pl eure</w>
passa gers</w>
ou vert</w>
mé de
mot ards</w>
mi r</w>
magni fique</w>
l é</w>
l ette</w>
kios que</w>
je ans</w>
indi enne</w>
indi en</w>
in cen
incen die</w>
i nes</w>
i le</w>
ho o
hi s
ga zon</w>
fé mini
fra î
fauteu ils</w>
en gag
dor mir</w>
dis cours</w>
di stri
dans euses</w>
d ure</w>
cô nes</w>
câ lin</w>
cuisi nant</w>
cor n
cir cuit</w>
che fs</w>
chau ssure</w>
chac un</w>
car te</w>
car n
bm x</w>
ban der
at ter
alpin iste</w>
allem and</w>
ai der</w>
affai res</w>
adver saire</w>
acc roche</w>
a qu
étr ei
élé ph
ç onn
véri fi
véhi cules</w>
vé téti
ven ant</w>
v aste</w>
urb aine</w>
ti l
te l</w>
tan ts</w>
t euse</w>
t ch
susp end
su p
sor tant</w>
sil hou
se ction</w>
san d
sand wi
s t
s om
s mas
récupé rer</w>
ro ck</w>
re tte</w>
re -
r és</w>
r ai
prê ts</w>
prépar er</w>
pos er</w>
por tables</w>
pla que</w>
pl es</w>
pi rat
pati noire</w>
pas s
pa d
ot h
ori ent</w>
ore ille</w>
o pé
nag ent</w>
n i</w>
métalli ques</w>
montr ent</w>
mi ère</w>
magaz ine</w>
m â
m ati
m am
lég èrement</w>
lé v
ju m
jong le</w>
ill és</w>
harn ais</w>
gri ma
g s</w>
fr ais</w>
for es
flot tant</w>
f leur</w>
ex pl
entraî nement</w>
ensei gne</w>
en tou
embras sent</w>
déjeu ner</w>
dé contrac
dé col
dr oit</w>
diri ge</w>
d ur</w>
cuisini er</w>
cr oi
contr e
comm ence</w>
combinai sons</w>
chan ter</w>
ca ge</w>
ca ban
c ai
basket ball</w>
b am
av al</w>
at t
arti fi
arr ête</w>
ar ro
appro che</w>
agi tant</w>
achet er</w>
œu vre</w>
œu fs</w>
ép ée</w>
é pou
vététi ste</w>
viol on
vi c
ve lo
velo p
v aiss
vaiss elle</w>
télépho nique</w>
télé vision</w>
trom pette</w>
tr u
tr on</w>
tambou r</w>
t ées</w>
surve ill
se -
s i</w>
s aisi
re posent</w>
rapi dement</w>
qu oise</w>
pâ te</w>
pro té
poussi ér
pos ées</w>
por tes</w>
por ter</w>
pn eu</w>
pein dre</w>
pati n
parti ellement</w>
par ents</w>
pap a</w>
pal et</w>
pai x</w>
p és</w>
oth èque</w>
origi ne</w>
oi ent</w>
obser vent</w>
ob s
nouve au-
ni ère</w>
n gle</w>
n ac
mus ée</w>
mot eur</w>
mm ent</w>
mem bre</w>
m ob
lo t</w>
l ass
k il
ju ngle</w>
im posant</w>
im pli
heur euse</w>
her b
h é
grou pes</w>
grim pant</w>
gra vier</w>
g es
froi d</w>
fil ets</w>
fai te</w>
eu ro
entraî neur</w>
en voie</w>
en nes</w>
en la
en cou
dé fen
dé cor</w>
dor é</w>
docu ments</w>
dis sent</w>
cô ne</w>
cr ête</w>
co lon
che tant</w>
cer f
car tons</w>
car re
bor dé</w>
bois é</w>
bli othèque</w>
bi bliothèque</w>
bat tre</w>
ball er
autom atique</w>
appréci ant</w>
align és</w>
a juste</w>
a chetant</w>
étran ge</w>
x i</w>
vi tre</w>
ver saire</w>
tu be</w>
tram way</w>
tor ses</w>
tom bé</w>
ti tu
ta xi</w>
souff le</w>
sorti e</w>
ser rant</w>
sci enti
s y
s col
récipi ent</w>
pê cher</w>
professionn el</w>
pou ce</w>
poi trine</w>
plong eant</w>
plong e
plan cher</w>
pin s</w>
pi tal</w>
pan neaux</w>
pa gn
p le</w>
ore ill
opé ration</w>
ong s</w>
offi ci
ni versaire</w>
nau tique</w>
mousta che</w>
micro phone</w>
maqu illage</w>
mam an</w>
mai sons</w>
m es
m a</w>
li ers</w>
lass o</w>
lar ge</w>
lam pe</w>
la vant</w>
l eux</w>
journ aux</w>
inter section</w>
in form
i si
hô pital</w>
hu la</w>
hoo p</w>
ho ri
h am
gé ant</w>
grima ce</w>
gril ler</w>
g y
g no
g an
fi x
fai blement</w>
f oire</w>
esc ri
entraî ne</w>
entr er</w>
en velop
dé place</w>
distri bu
de l
d él
d i</w>
cri ck
crick et</w>
comm en
comm an
coiff ure</w>
chan teuse</w>
chan son</w>
cha que</w>
carn aval</w>
cares se</w>
caban e</w>
c œur</w>
bran che</w>
bou euse</w>
bill ard</w>
bijou x</w>
bassi n</w>
b ac
athlè tes</w>
ate lier</w>
arti stes</w>
ar t
ar me</w>
apprê tent</w>
an niversaire</w>
agenou illée</w>
afro- américaine</w>
afric aine</w>
accroupi e</w>
accroch é</w>
ac ci
a le</w>
a c</w>
ï s</w>
étudi ant</w>
équipe ments</w>
é to
éto ff
é pi
w al
vic toire</w>
ven te</w>
usi l</w>
uni ver
u cteur</w>
tri cy
tatou ages</w>
tai nes</w>
t è
t ongs</w>
t gol
tgol fi
se cou
sandwi ch</w>
rou es</w>
roch eux</w>
reli gi
re ç
re posant</w>
ran g</w>
ra se</w>
r gi
pê cheur</w>
po ul
po il</w>
plon ge</w>
pi zz
pel let
pat au
par tout</w>
pap illon</w>
pan iers</w>
pal mi
palmi ers</w>
p aire</w>
ou rs</w>
ombre lle</w>
nouveau- né</w>
nou s</w>
nac elle</w>
mon tgolfi
micro s</w>
mi x
li sent</w>
lev és</w>
le vé</w>
lam pad
l ants</w>
k er</w>
k e</w>
k e
in fi
infi r
imm en
hi p
gymn astique</w>
gi es</w>
g r
g o</w>
g ement</w>
for t</w>
fo o
flan c</w>
fl â
f usil</w>
f ro
f il</w>
f aux</w>
ex écu
ex péri
es sen
en vers</w>
en t
en gi
embras ure</w>
dis pu
dessi n</w>
de dans</w>
d une</w>
cré p
cro sse</w>
cr euse</w>
cond ucteur</w>
cl és</w>
chi ot</w>
chau de</w>
ce p
cai sses</w>
cabi ne</w>
c at
brou ette</w>
bre t
bois ée</w>
blon des</w>
bar res</w>
b ons</w>
aéri enne</w>
av an
attra pant</w>
atta chés</w>
art .</w>
an cien</w>
amu se</w>
al ler</w>
afric ain</w>
ado ssé</w>
ô t</w>
éloi gnant</w>
élec tron
écri vant</w>
écou tent</w>
écoss aise</w>
vol ent</w>
voi es</w>
vend eurs</w>
v illage</w>
v entre</w>
usi ne</w>
us cule</w>
univer si
traî neau</w>
traditionn el</w>
to ges</w>
to ge</w>
thé âtre</w>
tch ou
tchou c</w>
t â
sty le</w>
ski eurs</w>
ser re</w>
scol aire</w>
s ées</w>
s te
s prin
répar ant</w>
rece veur</w>
qu ille</w>
poi ds</w>
po teaux</w>
pige ons</w>
per mé
pati o</w>
par quet</w>
pa ga
outi l</w>
ou tchouc</w>
oc y
nourri sson</w>
nn eur</w>
nett oient</w>
mé tier</w>
mon ocy
mo der
moder ne</w>
mat el
mar bre</w>
man che</w>
ma ïs</w>
li qui
lave rie</w>
l ée</w>
j e</w>
j ail
inter agi
im pri
im permé
ho nneur</w>
hau teur</w>
gir l</w>
g rap
g noire</w>
fu mée</w>
fou r</w>
for aine</w>
fon cti
fl ûte</w>
fl eu
fan f
fanf are</w>
examin ant</w>
et é</w>
et h
entraî nant</w>
en g
em u
dél abr
dégui sés</w>
décontrac tée</w>
der by</w>
dan ce</w>
dam es</w>
d res</w>
d on
d eurs</w>
d en</w>
cu ill
crép uscule</w>
cr ème</w>
cr aie</w>
cou che</w>
corn emu
contr ôle</w>
clôtu rée</w>
cl in
circu lant</w>
ci n</w>
ch âteau</w>
can ard</w>
cami ons</w>
cam p</w>
ca outchouc</w>
br é</w>
bou gies</w>
bonn ets</w>
bander ole</w>
ban de</w>
bai gnoire</w>
bag u
b enne</w>
at ure</w>
as ses</w>
arti stique</w>
arrê tent</w>
arri ères</w>
arri vée</w>
ar c
allong ées</w>
al es</w>
agenou illé</w>
achè tent</w>
abr i</w>
électron ique</w>
écar tés</w>
vol er</w>
viol ets</w>
vali se</w>
tu s</w>
ton d
ti rée</w>
ti en</w>
tes ur
ten tes</w>
t u</w>
st ol
spor tif</w>
silhou ette</w>
sci e</w>
san s-
s ton</w>
s ter</w>
réuni ssent</w>
ré gi
ré col
ru rgi
ram assant</w>
qu ement</w>
prod uisent</w>
prod uisant</w>
pro ba
proba blement</w>
prati quent</w>
pou pée</w>
portr ait</w>
plon gée</w>
plan te</w>
pl eu
pi stol
pen chée</w>
pass ants</w>
pag aie</w>
p ées</w>
p re</w>
nouve l
n é
méde cin</w>
monocy cle</w>
mar quer</w>
man ne
machi nes</w>
m uni
lè vres</w>
lo cal</w>
liqui de</w>
lave r</w>
lampad aire</w>
l o</w>
ki tesur
k s</w>
jock ey</w>
j o</w>
inté res
inspec te</w>
indivi du</w>
indi ens</w>
in clin
immen se</w>
ho r
hal l</w>
gravi ssant</w>
grap hi
gar ni</w>
g este</w>
fémini n</w>
froi de</w>
flot te</w>
f ans</w>
ex térieure</w>
ex erci
escri me</w>
escalad ent</w>
engi n</w>
encou ra
en- ciel</w>
embras ser</w>
e y
e ils</w>
détend ent</w>
décor é</w>
dé coupe</w>
donn er</w>
discu te</w>
dessi nant</w>
d ri
d om
cu r
cu e
creu sant</w>
cr âne</w>
couv re-
col lè
chi rurgi
chem in
chau d</w>
cer ceau</w>
cein ture</w>
c rie</w>
bre ak
bran ches</w>
br on
bou tique</w>
bon bons</w>
bas -
ban deau</w>
bad au
badau ds</w>
b és</w>
asi e</w>
as sent</w>
arti san
arro sage</w>
arc -
arc- en-ciel</w>
applau dissent</w>
appar eils</w>
anim é</w>
ai n
agi te</w>
ag ents</w>
achè te</w>
ac ti
a der</w>
œu vres</w>
œ il</w>
ê tres</w>
éléph ant</w>
é vier</w>
é ven
é tal
é gal
égal ement</w>
vi tés</w>
uni que</w>
u ment</w>
tudi o</w>
tu ellement</w>
tricy cle</w>
tri co
tomb ant</w>
te int</w>
te ch
sy n
ss i</w>
so ci
smas h
sk ie</w>
si m
ser v
scienti fique</w>
savou re</w>
sans- abri</w>
s tudio</w>
régi on</w>
ré pè
rus ses</w>
ru re</w>
rou ler</w>
retourn ant</w>
ren ver
rapi des</w>
ra quettes</w>
ra f
r ail
qui t
qui n</w>
présen tation</w>
proté ger</w>
profes seur</w>
pro ch
pneu s</w>
plu mes</w>
pirat eur</w>
per c
pen chant</w>
pe l</w>
pati n</w>
parta gent</w>
parta geant</w>
p te</w>
olympi ques</w>
nuag eux</w>
navi gu
nag eurs</w>
nag er</w>
n œu
m è
m o</w>
le quel</w>
japon ais</w>
impermé able</w>
i stes</w>
i s</w>
hori zon</w>
gu é</w>
gril le</w>
gla cée</w>
ges tes</w>
gar és</w>
gar é</w>
g ère</w>
g rue</w>
fris és</w>
fores tier</w>
fer rée</w>
fen êtres</w>
ex ci
entraî nent</w>
entour és</w>
dé garni</w>
diver ses</w>
d o</w>
câ bles</w>
cuisini ère</w>
cui re</w>
coéqui pier</w>
cou teau</w>
constr uisant</w>
con tenant</w>
com posé</w>
colle ction</w>
col lants</w>
co c
cl aire</w>
ci trou
ci pa
cho rale</w>
chau ff
char rette</w>
ch â
ch ette</w>
cerf -
cerf- volant</w>
cav ali
bul le</w>
bu r
bou ée</w>
bou quet</w>
bou eux</w>
bor deaux</w>
bo m
bl ess
be ac
beac h</w>
bask ets</w>
bas- côté</w>
ba c</w>
au ssi</w>
atten te</w>
at es</w>
as pirateur</w>
as cen
arri ve</w>
argen té</w>
ap pe</w>
an ge</w>
an ces</w>
am ie</w>
accom pagn
a b
2 0
1 2</w>
éc rire</w>
é toile</w>
z ar
ve ments</w>
u nes</w>
tur ban</w>
tron çonn
tro pi
tran sport</w>
tourn er</w>
tau corps</w>
tatou é</w>
t tor
sur éle
sou r
si gn
ser vant</w>
sau vage</w>
sa n</w>
s éri
s cou
réuni on</w>
ri ng</w>
reç oit</w>
rail s</w>
qu ar
pé dal
pâ le</w>
pre mière</w>
po terie</w>
pl ô
pl eurs</w>
pin g
perc euse</w>
per ru
per ron</w>
per for
perfor man
performan ce</w>
pein ts</w>
parti r</w>
paras ols</w>
p ha
orien tale</w>
on ce</w>
o les</w>
ni ques</w>
nat ure</w>
mou vements</w>
mou tons</w>
mou ton</w>
mou sse</w>
mor ceaux</w>
mon ument</w>
mi -
met tent</w>
manifes tants</w>
magaz ines</w>
mag as
magas ins</w>
m ex
m er
m c
m au
m al
lon dres</w>
li ve</w>
la ve</w>
la mm
l és</w>
l es
kil t</w>
jus taucorps</w>
je tant</w>
in térieure</w>
in ten
i f
i es</w>
hô tel</w>
hock ey
h e
h an
gy m</w>
gro sses</w>
gol den</w>
gi le</w>
gar ée</w>
ga z
g és</w>
ff re</w>
fa bri
ex pres
ex e</w>
ett eurs</w>
essen ti
escal ader</w>
en com
dé part</w>
dé bri
débri s</w>
dispu tent</w>
discu ssion</w>
diri geant</w>
di sant</w>
di plô
dessi ne</w>
cul aire</w>
cuill ère</w>
croi x</w>
cou vre</w>
cou ples</w>
cornemu se</w>
commen cer</w>
comm er
cli ent</w>
cipa l</w>
cho isi
chi ots</w>
cher chant</w>
che ts</w>
char geant</w>
ch è
ch et</w>
cam ping</w>
cad die</w>
c é</w>
bé bés</w>
bril lante</w>
bret elles</w>
blou ses</w>
bi zar
bask etteurs</w>
bar il</w>
ban an
bac k</w>
b roch
b ains</w>
assi ettes</w>
as sé</w>
ar ros
appréci ent</w>
ai nes</w>
ai dent</w>
acrobati e</w>
a bru
étrei gnent</w>
étr oite</w>
écu me</w>
éclai rage</w>
éclabou ssant</w>
é cr
y og
yog a</w>
y ent</w>
vi e</w>
v u</w>
ui te</w>
ui -
ty pes</w>
tronçonn euse</w>
tr em
tr ai
tond euse</w>
tomb ée</w>
ti é</w>
ti mes</w>
tex as</w>
t onn
t ain</w>
surve ille</w>
sur poids</w>
su l
sty lo</w>
sous- vêtements</w>
sou de</w>
som bres</w>
soci été</w>
si n
sal es</w>
s tra
s qu
s mo
ré di
ri ers</w>
re ts</w>
re tourne</w>
re bon
ray és</w>
ran s</w>
ram asse</w>
qu illes</w>
pul véri
pu pi
présen te</w>
pres que</w>
por che</w>
poign ée</w>
po ê
po mmes</w>
po mme</w>
plonge oir</w>
piè ces</w>
pi que</w>
ph al
peu t</w>
patin eurs</w>
par al
par ade</w>
pa tient</w>
pa piers</w>
pa ce</w>
orien tal</w>
or gan
obsta cles</w>
nu ages</w>
nouvel lement</w>
nag eur</w>
n on</w>
mélan ge</w>
mus e
monta gn
moi tié</w>
matel as</w>
manne quin</w>
man u
ma tion</w>
lo s</w>
li ne</w>
li gnes</w>
let tres</w>
lan ter
l et</w>
l aine</w>
jum elles</w>
jou é</w>
jo h
jail li
j us</w>
im ages</w>
hé li
hockey eurs</w>
herb eux</w>
gu er
gravi t</w>
go û
gli sser</w>
gar ées</w>
gal erie</w>
g re</w>
g ie</w>
fr ère</w>
four rure</w>
for mation</w>
fi ques</w>
f ar
ex posé</w>
essa yer</w>
envi ron</w>
envi r
entre tien</w>
ent ass
engag és</w>
enf lamm
emm ent</w>
e- ville</w>
dé s</w>
dor ée</w>
dor ment</w>
docu ment</w>
dis que</w>
de man
d j</w>
crois és</w>
couver tures</w>
cour te</w>
coup s</w>
corpul ent</w>
contre bas</w>
cl é</w>
ci ble</w>
centr e-ville</w>
carre lage</w>
can ot</w>
cam é
ca r</w>
ca pe</w>
c aux</w>
bu reaux</w>
break dance</w>
br û
bou les</w>
bou clés</w>
bor ne</w>
bor dure</w>
bom be</w>
bo ys</w>
ban jo</w>
bal ayant</w>
bai ssée</w>
bagu ettes</w>
bad ge</w>
b elles</w>
attra ction</w>
atta chée</w>
ath lé
as per
ar mée</w>
ar gile</w>
ar che</w>
am a</w>
allu re</w>
acci dent</w>
abru pte</w>
a jus
- co
étudi e</w>
étr e
étoff e</w>
épi cer
épicer ie</w>
écr as
écoss ais</w>
éco liers</w>
é che
éche cs</w>
é chan
é brou
x y
voy ag
voi lier</w>
visi ble</w>
violon celle</w>
viol ettes</w>
vi en
v ar
v ac
tur quoise</w>
tri ce</w>
traditionn elle</w>
tourn é</w>
tourn oi</w>
tiss er</w>
ti ssant</w>
th é</w>
th e</w>
tend ant</w>
ten du</w>
tal es</w>
ta ch
t ère</w>
t ège</w>
t y</w>
t tes</w>
séri e</w>
suspend ue</w>
sor tir</w>
sim il
se- pousse</w>
sau té</w>
saisi t</w>
sa v
réfléchi ss
ré graphi
ré cep
ri ve</w>
res te</w>
ren if
rempli s</w>
re poser</w>
re ment</w>
re gi
re fl
ray ons</w>
ras semble</w>
ram ent</w>
ram ant</w>
raf ting</w>
pê chant</w>
prati quant</w>
poussiér eux</w>
pous se-pousse</w>
pour suit</w>
pos te</w>
plu part</w>
plong eur</w>
pli ante</w>
pla ts</w>
pla qué</w>
pha se</w>
person n
pei gnent</w>
pa quet</w>
ou r
organ i
or n
oi ses</w>
occu pe</w>
obser vant</w>
nuag euse</w>
nouve au</w>
nombr euse</w>
ni e</w>
navi gue</w>
n es
médi é
muni cipal</w>
moy en-
mor d</w>
montgolfi ère</w>
mi s</w>
meu te</w>
meu bles</w>
mani pu
m ur
m p
lév riers</w>
lanc é</w>
l ées</w>
l ai
jou euses</w>
jong lant</w>
je c
inté gra
instal lant</w>
indi ennes</w>
in d
impri mé</w>
immeu bles</w>
im pres
ill ard</w>
ill ant</w>
il lumin
hau t-
ha che</w>
h aie</w>
gé ante</w>
grim ac
grimac es</w>
gril l</w>
gobel ets</w>
g ées</w>
g or
g erie</w>
g am
fri andi
four g
fleu rie</w>
fil me</w>
f ati
ex tré
essenti ellement</w>
espa gno
er i
envir onn
envelop pé</w>
enthousias tes</w>
enthousias me</w>
enthousi aste</w>
en regi
em pil
em bar
dépla çant</w>
dépla cent</w>
dé tend</w>
dé ploy
dé couper</w>
dé chets</w>
don al
do g</w>
dire ctions</w>
de m
d è
cu re</w>
cr ée</w>
cou ssi
constr uire</w>
con centr
colon nes</w>
co ol</w>
cl ette</w>
cl assi
cir cule</w>
cho régraphi
che -
char gement</w>
cham eaux</w>
ch u</w>
cavali ers</w>
cas ser
ca tion</w>
c élé
c élè
c rayon</w>
c es
c au
bu ff
bou r
bon ne</w>
be aux</w>
baller ine</w>
b ols</w>
b arrières</w>
atten tion</w>
arrière- cour</w>
appu yant</w>
ap prend</w>
ap pel
align ées</w>
ali sation</w>
al lant</w>
ai les</w>
affron tant</w>
adolesc ente</w>
accroupi t</w>
a pr
a cier</w>
20 12</w>
œu f</w>
éri que</w>
épou x</w>
ép ais</w>
écou ter</w>
échafaud ages</w>
éch asses</w>
éc rans</w>
é tire</w>
é ti
é mer
é jec
ç on</w>
â teaux</w>
wa ï
voy age</w>
vien nent</w>
vi te</w>
vend ent</w>
ven ir</w>
vac ances</w>
v us</w>
v ont</w>
ur gen
u i</w>
tri ste</w>
tri e
trie ver</w>
travail leur</w>
tran quille</w>
tou chant</w>
tori um</w>
ton d</w>
to p</w>
ti sse</w>
ter s</w>
tend us</w>
tai t</w>
ta pant</w>
spor tive</w>
situ é</w>
sign alisation</w>
si ro
seu lement</w>
secou e</w>
scou ts</w>
sar celle</w>
s è
s pé
spé ci
s pi
s li
réuni es</w>
ron de</w>
restau ration</w>
rempli t</w>
religi euse</w>
refl et</w>
re triever</w>
re grou
rap pel</w>
ra l</w>
r ail</w>
quar ter
qu eur</w>
péri l
péril leux</w>
pupi tre</w>
pro tes
pro che</w>
pr él
poul et</w>
pon ton</w>
poin tant</w>
po che</w>
pl aisi
plaisi r</w>
pistol et</w>
ping -
pil otes</w>
phal te</w>
per du</w>
pel lette</w>
pein te</w>
pei g
pati neur</w>
paral lè
p tère</w>
p ili
ouv rant</w>
ol i</w>
oi n
obs curité</w>
nœu d</w>
nouve lle</w>
navi re</w>
n ées</w>
moyen- orient</w>
moi ns</w>
min ce</w>
mi ères</w>
mi te</w>
mi ne</w>
mex ic
men u</w>
mc donal
manipu le</w>
m al</w>
lu x
kitesur f</w>
je e
j oie</w>
inspec tent</w>
impli qu
ill ent</w>
ic a</w>
i s
i en</w>
i ci</w>
héli co
hélico ptère</w>
habi ts</w>
ha waï
grat te</w>
graffi ti</w>
gn on</w>
gen ou</w>
gaz onn
gag ner</w>
g ères</w>
foo d</w>
foncti onn
fl é</w>
fl ou
fl eur
fleur i</w>
fin ir</w>
fil m</w>
fer me</w>
f ois</w>
f lo
f as
f ac
expéri ence</w>
examin ent</w>
essa ye</w>
ess aient</w>
environn ement</w>
entre prise</w>
ensei gn
en- dessous</w>
el é</w>
délabr é</w>
dégui sé</w>
dé coup
dres se</w>
dou lière</w>
di n
di a
dem ois
de v
d on</w>
d -
cuisi ner</w>
couvre- chef</w>
couv rant</w>
cou chée</w>
con n
con for
con cours</w>
con centre</w>
comm ande</w>
colli nes</w>
coiff e</w>
co le</w>
ci tron</w>
chorégraphi e</w>
chari ots</w>
cham eau</w>
cha ts</w>
cer tain</w>
cel ui</w>
can ette</w>
cal me</w>
ca pot</w>
c ail
bra cel
boî tes</w>
bo u</w>
blo c</w>
bless é</w>
bl az
blaz er</w>
bi ères</w>
bas cule</w>
ban doulière</w>
ball et</w>
balan cent</w>
audi torium</w>
attend re</w>
as sorti
as ser</w>
as phalte</w>
argen tée</w>
ar mes</w>
ar cade</w>
apr è
an ci
afro- américains</w>
adver ses</w>
accrou pis</w>
éven tail</w>
épou se</w>
ép aisse</w>
écar t</w>
é pon
é par
â nes</w>
z er</w>
xi ème</w>
we en</w>
wa ke
vérifi e</w>
vé gé
visi bles</w>
vie illes</w>
verdoy ante</w>
verdoy ant</w>
ve ston</w>
v rant</w>
v rai
v allée</w>
v al
us tri
u ant</w>
tè ques</w>
tu b
trou ver</w>
tri nes</w>
tr es
tr en
tomb ent</w>
ti ers</w>
tex to</w>
tem ple</w>
tach eté</w>
t- dog</w>
sé cher</w>
syn ch
synch ron
synchron i
surveill ent</w>
surpl om
sur fer</w>
sup por
sui vent</w>
sui vant</w>
su b
soi gn
so yeux</w>
so da</w>
skat eurs</w>
si ve</w>
servi r</w>
ser veur</w>
ser ies</w>
ser ie</w>
savou rent</w>
salu ant</w>
s- mi
s-mi di</w>
s tor
s sement</w>
s es
répar ent</w>
réfléchi ssant</w>
ré ali
roul ants</w>
rempli ssant</w>
re vêtement</w>
ray ées</w>
rassembl ant</w>
ras é</w>
ras er</w>
ras ant</w>
ra s</w>
ra ges</w>
qu oi</w>
qu elle</w>
qu at
pâ tis
proje cteur</w>
pro pri
pro ches</w>
pri x</w>
pourch assant</w>
pour pre</w>
po ts</w>
po s</w>
po p
po ing</w>
pli que</w>
plan e</w>
photographi é</w>
photograph es</w>
perru que</w>
per les</w>
pein tre</w>
peig noir</w>
pas tèques</w>
parti tion</w>
pa ge</w>
p ôt</w>
os pace</w>
oreill ers</w>
oi ts</w>
o ti
o k
nu age</w>
no mm
navigu ant</w>
n otes</w>
n oc
n eu
n appe</w>
mê mes</w>
médi cal</w>
mé es</w>
mousta chu</w>
mon ospace</w>
mon o
mob y
mo dè
mini ature</w>
mi e</w>
mau v
marchandi se</w>
maratho ni
mar t</w>
mar i</w>
manifes tant</w>
ma j
m age</w>
lév rier</w>
lo ween</w>
li s</w>
li bre</w>
lanc ent</w>
la crosse</w>
kaya ki
k a</w>
joh n</w>
jee p</w>
jardi nage</w>
j oli</w>
intégra le</w>
inter vie
inform atique</w>
infir mières</w>
ind ustri
impli quant</w>
ill er</w>
i tou
ho t-dog</w>
har mon
hal loween</w>
gor ge</w>
gla ci
g âteaux</w>
fu mer</w>
fro mage</w>
fran chi
for d</w>
fo yer</w>
flâ nant</w>
fi c</w>
ffe r</w>
fer rées</w>
f eur</w>
exécu tent</w>
expl o
ex i
ex hi
euro pe</w>
eu xième</w>
entre pôt</w>
entr ant</w>
enregi str
emm itou
el mo</w>
effectu ent</w>
défil ent</w>
décor ations</w>
débar deurs</w>
dé mar
dé li
dé coupant</w>
dé ci
dé chi
du rant</w>
dri b
dra g
dr ôle</w>
dou che</w>
dom in
distribu teur</w>
da le</w>
d euxième</w>
curi eux</w>
couver ts</w>
corpul ente</w>
con cur
compl et</w>
co la
co l</w>
circu lent</w>
ci er
chè vre</w>
chin oises</w>
cher cher</w>
chemin ée</w>
char ge</w>
cha r</w>
cha ge</w>
ch ées</w>
cel lu
cein tures</w>
can nes</w>
can ards</w>
can al</w>
cal èche</w>
c teurs</w>
buff et</w>
brou illard</w>
bon dit</w>
bizar re</w>
bill ets</w>
bikin is</w>
ban s</w>
ban nière</w>
balanç ant</w>
bai ser</w>
ati f</w>
at a</w>
artifi ce</w>
ari um</w>
aqu arium</w>
aprè s-midi</w>
appar tement</w>
améri que</w>
al et</w>
agri cole</w>
agenou illés</w>
admi re</w>
a mar
étrei gnant</w>
étre int</w>
étr oit</w>
épon ge</w>
é tal</w>
é tabli
établi ssement</w>
é meute</w>
xy lo
xylo phone</w>
wal mart</w>
wake board</w>
visi ère</w>
vi té</w>
vi tres</w>
vi tr
va le</w>
urgen ce</w>
universi taire</w>
u ri
u n
tâ che</w>
tub a</w>
tré pied</w>
tru ck</w>
traî nant</w>
trans porte</w>
tra fic</w>
tr ess
tr e
touri ste</w>
tou ris
tom ates</w>
tom ac</w>
tis me</w>
ti ge</w>
tan te</w>
tail ler</w>
tai si
tabli ers</w>
suréle vée</w>
sur vêtement</w>
stra tion</w>
str e
stationn ement</w>
souri ants</w>
ski ant</w>
situ ée</w>
sin ge</w>
si gnes</w>
si eurs</w>
sho p
shop ping</w>
servi ce</w>
serv euse</w>
sculp tures</w>
sc ri
sav on</w>
sau ci
san te</w>
salu ent</w>
sal ue</w>
s èche</w>
s tar
s t</w>
s oir</w>
s eurs</w>
s ens</w>
répè te</w>
rédi ents</w>
récep tion</w>
ru rale</w>
roul é</w>
ron d</w>
ro quoise</w>
ri z</w>
retourn é</w>
re d</w>
rapi de</w>
ra di
r aide</w>
qui tte</w>
quarter back</w>
pu n
proch ain</w>
pro tège</w>
pr é</w>
poê le</w>
poussiér euse</w>
pous sent</w>
pourch assé</w>
por té</w>
pol y</w>
plong eurs</w>
plat e
plan tant</w>
pla quer</w>
pl ai
pizz a</w>
pin ata</w>
pige on</w>
pi ra
photographi er</w>
peu pl
pau vre</w>
pati nent</w>
pati emment</w>
passa ger</w>
pal mier</w>
paga yant</w>
pa tri
p assi
ou verts</w>
oreill er</w>
or né</w>
ong les</w>
om bra
olympi que</w>
oi res</w>
offici elle</w>
occu pés</w>
obs cure</w>
ob ile</w>
o eu
nourri t</w>
noi x</w>
no sau
neu f</w>
mâ che</w>
musi cal</w>
muse lière</w>
mu tuellement</w>
mu rale</w>
mp ;</w>
moy enne</w>
mot o
montagn eux</w>
mono poly</w>
mon stration</w>
mi se</w>
mi que</w>
mes sieurs</w>
mas cu
mari n</w>
march and</w>
mar mite</w>
mani ère</w>
mani pul
ma î
m ène</w>
m on</w>
m ol
lè che</w>
lut tent</w>
li g
lanter nes</w>
lan tes</w>
lan d</w>
la vent</w>
la pin</w>
l y
l ins</w>
ki mon
kaya ks</w>
k s
ju ges</w>
jou rs</w>
inspec tant</w>
ing rédients</w>
in o</w>
in f
in a
impres sionn
im pos
ill ées</w>
ill ères</w>
il es</w>
i roquoise</w>
his tori
his pan
harmon ica</w>
ham ac</w>
h ur
guitar es</w>
guer re</w>
grim pent</w>
goû ter</w>
gla cier</w>
genou illères</w>
gazonn é</w>
gar der</w>
gar de</w>
gar de-
g os</w>
g er
fris é</w>
fraî che</w>
fourg onnette</w>
for ces</w>
flâ nent</w>
flan elle</w>
fl am
fil mer</w>
fil mant</w>
fati gué</w>
fan taisi
f eux</w>
extré mité</w>
expl or
exerci ce</w>
ex tr
eth nique</w>
essa yent</w>
espagno l</w>
esc ar
es tomac</w>
es su
enf on
endr oits</w>
encoura gent</w>
en terr
en lève</w>
en lever</w>
en cein
encein te</w>
en cad
em ball
el és</w>
e ff
e f
détend ant</w>
dégui sée</w>
décol le</w>
dé sor
dé monstration</w>
dé ambul
dou ble</w>
donn ent</w>
do ss
di nosau
di ens</w>
dessi ns</w>
des tin
demois elles</w>
del à</w>
d age</w>
câ ble</w>
cuisi nent</w>
crois ées</w>
creu sent</w>
cow- boys</w>
coup ent</w>
contr er</w>
constr uit</w>
con tenu</w>
con tai
comm un</w>
com pris</w>
cola t</w>
col lation</w>
coiff eur</w>
co tte</w>
co re</w>
co ffre</w>
co ck
clôtu ré</w>
clow ns</w>
clo s</w>
cl ar
citrou ille</w>
ci le</w>
châ le</w>
cho colat</w>
chi ne</w>
chi c</w>
cher chent</w>
chem ent</w>
cham ps</w>
ch at
cer ceaux</w>
cat cheur</w>
casser ole</w>
cas ino</w>
cani che</w>
can a
cal mes</w>
ca hi
ca deaux</w>
ca che</w>
c ils</w>
bul l
bron z
bro ssant</w>
bril lantes</w>
bracel et</w>
br ée</w>
box e</w>
bou lan
bou gie</w>
bor ds</w>
blo quer</w>
bei ges</w>
bat man</w>
bar bus</w>
bam bou</w>
baller ines</w>
ba var
b û
auto ch
au- delà</w>
atter rir</w>
atta che</w>
att el
at teint</w>
as su
ari de</w>
ar ran
ar a
appuy ée</w>
appro chant</w>
appel é</w>
an gle</w>
an g
ami que</w>
agenou ille</w>
adolesc entes</w>
admi rant</w>
acti vités</w>
acrobati es</w>
accroch és</w>
accroch ant</w>
accompagn é</w>
a ven
a k</w>
&a mp;</w>
ë s</w>
étudi ante</w>
éta gère</w>
ér é</w>
épar p
élé v
élév ateur</w>
élé g
électri ques</w>
éjec té</w>
écras ant</w>
échar pes</w>
échan til
ébrou e</w>
é toi
é tendu</w>
é teindre</w>
é tait</w>
é tage</w>
é po
épo que</w>
é gou
é dra
édra le</w>
é chauff
ç a</w>
âg es</w>
y on</w>
y -
w as
vérifi ant</w>
végé tation</w>
voi rie</w>
vi trines</w>
vi se</w>
vi ce</w>
verd ure</w>
ver ti
ver sant</w>
ven tion</w>
ve tte</w>
v i</w>
uni s</w>
ui- même</w>
u p</w>
télépho nes</w>
tâ ches</w>
tu euses</w>
tu elle</w>
ttor al</w>
tron cs</w>
tro ph
troph ée</w>
tr ains</w>
tourn ant</w>
tourn age</w>
tou jours</w>
tou chent</w>
ti n</w>
ti gre</w>
termin é</w>
ten sion</w>
te e</w>
tatou ée</w>
tal ent</w>
tabl eaux</w>
ta ches</w>
t oy
t os</w>
t ho
t aux</w>
t a</w>
sé par
sé ment</w>
sé ance</w>
sup port</w>
sui vi</w>
sui te</w>
su cette</w>
stre et</w>
ssi ère</w>
squ are</w>
sprin k
spor ts</w>
spectat eur</w>
souri antes</w>
sour cils</w>
sou tien
sou levant</w>
sor tent</w>
soign eusement</w>
so on
smo king</w>
skate boar
skate -
skate- board</w>
ser rent</w>
scri p
scoot ers</w>
s- unis</w>
s ym
s ti
s pon
spon so
s me</w>
s cope</w>
s .</w>
répar ations</w>
réfléchiss ants</w>
ré pon
roch euses</w>
ro cail
renver sé</w>
ren contre</w>
rem uant</w>
rem et
re tire</w>
rassembl ée</w>
ram i
radi o</w>
ra vin</w>
r ène</w>
r y</w>
r y
r all
rall ye</w>
r ait</w>
quit tant</w>
qu ée</w>
pê chent</w>
py rami
pu b</w>
propri é
professionn els</w>
pri ses</w>
pr ête</w>
pr atique</w>
pou tres</w>
pou dre</w>
pon ey</w>
po los</w>
pli antes</w>
plate forme</w>
plai san
pla c
pizz eri
pizzeri a</w>
pira te</w>
pin ceau</w>
pili er</w>
pil o
peupl é</w>
person nag
personnag es</w>
percu ssion</w>
pelu ch
pellet euse</w>
pel ot
pelot on</w>
pati ns</w>
patau ge</w>
parti cu
par es
par ent</w>
par d</w>
par ce</w>
pag aient</w>
pa v
p hi
ouvri r</w>
ou r</w>
op posé</w>
on ze</w>
om bi
oig nent</w>
oi rs</w>
offi cier</w>
occu pent</w>
obser ver</w>
o rs</w>
numé ro
nu m
num érique</w>
nomm é</w>
ni veau</w>
ni er</w>
ni che</w>
ne w
nat tes</w>
mus clé</w>
mur et</w>
mu sul
mou illée</w>
mor t</w>
modè le</w>
moby lette</w>
mob ile</w>
mi taines</w>
mexic ain</w>
men ui
me c</w>
mcdonal d&apos;</w>
mas ques</w>
mas cotte</w>
mari és</w>
maqu ille</w>
man œu
magni fiques</w>
ma quette</w>
m û
lumin eux</w>
lu tte</w>
lo go</w>
li v
li ttoral</w>
li e</w>
le vée</w>
la quelle</w>
l à</w>
l ui-même</w>
l les</w>
l ettes</w>
l aire</w>
ki ck
jock e
jocke ys</w>
je t
j oin
j eng
jeng a</w>
j ave
jave lot</w>
intervie w
interagi ssent</w>
instru ctions</w>
instal le</w>
infir mière</w>
inf éri
ina chev
in scrip
in habi
in de</w>
in clu
i t</w>
i rs</w>
i ques</w>
i po
i g
herb euse</w>
haut- de-
haut-de- forme</w>
h a</w>
gui de</w>
gro tte</w>
gravi ssent</w>
grat tant</w>
gonfla bles</w>
gon f
gal ets</w>
g re
g alo
fr uit</w>
fr on
fonctionn er</w>
fon taines</w>
flot tent</w>
fla mmes</w>
feu tre</w>
feu ill
fer mier</w>
fe t
fa brique</w>
f ê
f us
f rire</w>
expres sion</w>
exerci ces</w>
euro pé
entr ent</w>
entour ent</w>
entou rées</w>
entou rant</w>
enseign ante</w>
enla ce</w>
encom brée</w>
en clu
enclu me</w>
défil ant</w>
défen seur</w>
déchi ré</w>
débar ras
dé sar
dé nei
dé g
dra p</w>
donn é</w>
dire c
dinosau re</w>
di r</w>
dessi ner</w>
deman de</w>
de mi-
d rap
d ail</w>
célè bre</w>
cy clette</w>
cuisini ers</w>
cue ille</w>
cré er</w>
cré ation</w>
cr ê
coéqui piers</w>
couver cle</w>
coussi n</w>
cour bé</w>
cou d</w>
cor n</w>
contai ner</w>
constr uisent</w>
con s</w>
con fet
com posée</w>
com battant</w>
colo ri
collè gues</w>
collè gue</w>
classi que</w>
cir culaire</w>
cigar e</w>
cho n</w>
chi ps</w>
chev alet</w>
char gé</w>
chan dail</w>
cha pi
ch eurs</w>
cellu laire</w>
cano ës</w>
cal es</w>
c ross</w>
c re
c rayons</w>
c ing</w>
c ath
cath édrale</w>
c ag
bâ che</w>
bull do
bru nes</w>
bri n
br ass
bou le
bo yant</w>
bl ot
bi n</w>
bi cyclette</w>
ber mu
ber ge</w>
bat aille</w>
bar que</w>
banan es</w>
ban li
bam bin</w>
bal ais</w>
b us
b ong
b o</w>
b es
b al</w>
b aisse</w>
ave r
autom obile</w>
auto route</w>
attel age</w>
athlé tisme</w>
ascen sion</w>
as sembl
artisan at</w>
artifi ci
arrê té</w>
ari s</w>
ar rose</w>
aqu atique</w>
applau dit</w>
ap prenant</w>
an neau</w>
améri n
amus er</w>
ami es</w>
alpin istes</w>
alimen taires</w>
al cool</w>
ain si</w>
agri cul
accom pli
a î
a fin</w>
a des</w>
a bor
œu rs</w>
ô les</w>
étoi les</w>
étoff es</w>
étal age</w>
éta t</w>
ép ées</w>
éléph ants</w>
élé gant</w>
él oignent</w>
él astique</w>
éclai rages</w>
é tirant</w>
é tend</w>
é tat
état s-unis</w>
zo o</w>
z é
z ombi
wag en</w>
w o
w n</w>
w at
vrai ment</w>
voy ant</w>
vol ks
volks wagen</w>
vol ants</w>
vol .</w>
voi x</w>
vie ill
vi des</w>
ver nis</w>
ven irs</w>
ve l
vali ses</w>
va ches</w>
va bo</w>
v eu
ul ti
ulti ma
ultima te</w>
u le</w>
télé siège</w>
ty pique</w>
tuy aux</w>
tur ne</w>
tu tu</w>
tu mul
tumul tueuses</w>
tu bes</w>
ttor es
ttores que</w>
tré bu
tropi cale</w>
tro p</w>
tri tus</w>
tri bu</w>
tres ses</w>
tren ch
trench -co
trench-co at</w>
tr ons</w>
tourn oy
ton es</w>
toi rs</w>
tin c
ti r
ti on
ti ne</w>
termin er</w>
ter rier</w>
ten ter</w>
tech nique</w>
tatou eur</w>
tail lant</w>
ta tive</w>
ta per</w>
t ements</w>
sè che-
synchroni sée</w>
suspend us</w>
surplom be</w>
surf eurs</w>
suppor ters</w>
super man</w>
su eur</w>
ste ak
sta te</w>
soutien -
soutien- gorge</w>
souff leur</w>
souff lant</w>
sou venirs</w>
sou ple</w>
sou lever</w>
sou dure</w>
sou der</w>
sor tis</w>
sor tes</w>
soon ers</w>
snowboar der</w>
smas h</w>
sli p</w>
simil aire</w>
si te</w>
si ff
servi ettes</w>
ser ré</w>
sem i
semi -
secou ri
se cours</w>
se c
se att
seatt le</w>
saxo pho
sauci sses</w>
san g</w>
san g
s œur</w>
s top</w>
s sa
s pat
spat ule</w>
s l
s h</w>
s aris</w>
s aires</w>
s -s
répè tent</w>
ré pé
ré confor
ry th
rus tique</w>
ru ral</w>
ru bans</w>
rou illée</w>
ron des</w>
ro bo
res semblent</w>
renif le</w>
rempli ssent</w>
remet tre</w>
regrou pés</w>
recou vrant</w>
rece vant</w>
re vers</w>
re la
re l
rel ais</w>
re c
ras oir</w>
rap pro
ram pes</w>
ram asser</w>
ram assent</w>
ra deaux</w>
r lan
r entrer</w>
qu oti
pédal ant</w>
pyrami de</w>
pul ls</w>
publici tés</w>
proje cteurs</w>
profon des</w>
proch aine</w>
pro venant</w>
pro tè
pro pre</w>
pro posant</w>
pro pos</w>
prin ci
princi pal
principal ement</w>
pri ent</w>
pri ant</w>
pr être</w>
pous ser</w>
poul ets</w>
pou pées</w>
posi tif</w>
portr ai
portrai ts</w>
porte- documents</w>
por tée</w>
por teur</w>
po tier</w>
po ns</w>
po ils</w>
plu me</w>
plonge on</w>
plong er</w>
pleu t</w>
pier cing</w>
pi ttoresque</w>
pi stes</w>
pi pe</w>
personn els</w>
person nage</w>
per ché</w>
pel les</w>
pe ment</w>
pe -
pe- vent</w>
pat te</w>
partici p
particip ants</w>
pares sent</w>
par tage</w>
pan or
pag nie</w>
pa trou
pa tien
p eur</w>
p ca
p aisi
paisi ble</w>
p a</w>
ou ver
ot te</w>
ot er</w>
ordi n
oran gé</w>
or dre</w>
om bres</w>
ol o
offici ers</w>
o pard</w>
o mm
noc turne</w>
no m</w>
new -
new- york</w>
nes s</w>
navi ga
naviga ble</w>
nag euse</w>
n in
n ey</w>
mélan geant</w>
médi caux</w>
méde cin
médecin s</w>
musul man
mou ettes</w>
motoc y
mor dre</w>
montgolfi ères</w>
mo ts</w>
mo tif</w>
mo de</w>
min ton</w>
min ces</w>
mi ami</w>
meu ble</w>
men ton</w>
men ant</w>
mati ques</w>
mar que</w>
mar ins</w>
maqu illé</w>
manu el</w>
manipul ant</w>
mai n
mai d</w>
m el
lé opard</w>
lut teurs</w>
lou r
lou pe</w>
lo cale</w>
lig h
li ères</w>
li ber
liber té</w>
lev ées</w>
le gos</w>
le gg
le -
la vabo</w>
la v
la pins</w>
la bra
labra do
l on</w>
l ait</w>
kin gs</w>
kick box
je ts</w>
je ter</w>
ja ck</w>
j ui
ipo d</w>
inter ro
inter n
inten sément</w>
instal lée</w>
inscrip tions</w>
ing ton</w>
inform ations</w>
industri el</w>
inclu ant</w>
in titu
impos ante</w>
impliqu és</w>
imm ob
il ant</w>
identi fi
i ssant</w>
hu tte</w>
hor s-
histori que</w>
hawaï enne</w>
h andi
handi cap
h ai
gui chet</w>
grim per</w>
gril lage</w>
grat uits</w>
ga z</w>
g in
g e-
g au
g an</w>
friandi se</w>
fraî chi
frap pé</w>
fran ç
foul ards</w>
fou rn
fores tière</w>
foncti onne</w>
fo u</w>
flou e</w>
fl or
fi er</w>
fantaisi e</w>
fabri quant</w>
f ée</w>
examin er</w>
ex posés</w>
ex posées</w>
ex pose</w>
ex per
ex er
eth niques</w>
ess uie</w>
er vice</w>
enti èrement</w>
entass és</w>
ensei gnes</w>
ensei gnant</w>
enla çant</w>
enflamm és</w>
en voyant</w>
en core</w>
en ces</w>
emmitou flé</w>
emm ène</w>
el ée</w>
effectu er</w>
dégui sées</w>
décor ée</w>
dé tritus</w>
dé f
dé chargeant</w>
dé but</w>
drib ble</w>
drag on</w>
doss ard</w>
diver ti
dis positif</w>
di ffi
dev an
destin ation</w>
dessi née</w>
descen te</w>
der ie</w>
da s</w>
d y
d og
cu pca
cou pe-vent</w>
cor ne</w>
constr uite</w>
conn ue</w>
confet tis</w>
concentr é</w>
con tem
con s
con di
compl è
compl exe</w>
com pagnie</w>
com bres</w>
colon ne</w>
colo rie</w>
colli ers</w>
coc o</w>
co pes</w>
co ca
coca -co
coca-co la</w>
cl am
cigar ettes</w>
cier ge</w>
ci vi
ci seaux</w>
cho ir</w>
chirurgi ens</w>
chi ff
char cu
chapi teau</w>
ch asse</w>
ch al
cau cas
cas sée</w>
cas sé</w>
cas se</w>
can yon</w>
cam ping-
cam pement</w>
cabi nes</w>
ca s</w>
ca pi
ca des</w>
c ture</w>
c riant</w>
bulldo zer</w>
bul l</w>
bui sson</w>
bu ste</w>
brû lant</w>
bro sser</w>
boule ver
boulan gerie</w>
bou ts</w>
bou c</w>
blo que</w>
bi ker</w>
bar reaux</w>
bar maid</w>
bar deaux</w>
bar bi
banli eue</w>
banan e</w>
bai gnent</w>
bad minton</w>
ba voir</w>
b œufs</w>
b aie</w>
au vent</w>
au to</w>
au près</w>
atter rit</w>
ati fs</w>
assi stan
assi s
ass eur</w>
as se
artifici elle</w>
ara be</w>
appuy és</w>
app le</w>
ap pelle</w>
anci enne</w>
an neaux</w>
an ds</w>
allu me</w>
agri p
agi tent</w>
afric aines</w>
affi ches</w>
affi chage</w>
ad res
ad os</w>
ad or
acti vité</w>
achet eurs</w>
acci den
acc ess
ac teurs</w>
a jou
a bles</w>
a be
a ban
1 0</w>
-s ho
-s ervice</w>
éta ges</w>
ép i</w>
én er
élè ve</w>
él abor
égou t</w>
éclabou sse</w>
échantil lon</w>
éch appe</w>
é vi
évi ter</w>
é téri
étéri a</w>
é tu
é ment</w>
y si
x -
was h
wash ington</w>
wal k
volley -ball</w>
voi les</w>
vitr ée</w>
visi te</w>
violon iste</w>
ve z</w>
va trice</w>
va tion</w>
v ues</w>
v ing
us ten
universi té</w>
ui- ci</w>
u or</w>
u k
ty ro
tyro li
tyroli enne</w>
tu el</w>
tru c</w>
trou vant</w>
trou s</w>
trot te</w>
tropi cal</w>
trom pe
trom bo
trombo ne</w>
tri e</w>
tri coté</w>
tress és</w>
trem pé</w>
tran ches</w>
trai neau</w>
tra ce</w>
touris tique</w>
tor tue</w>
tor ches</w>
tor che</w>
toi lettes</w>
to que</w>
to ne</w>
tis sement</w>
tion -service</w>
ti ste</w>
ti quement</w>
ti onne</w>
th èque</w>
ter mine</w>
tem p
temp ête</w>
tar de</w>
tar d</w>
tan ce</w>
tambou ri
tal ents</w>
tabou rets</w>
ta pent</w>
ta n</w>
t ôt</w>
t une</w>
t onne</w>
t ob
tob us</w>
t h</w>
sym bo
suréle vé</w>
surveill ant</w>
sur di
surdi men
surdimen sionn
super be</w>
sui vre</w>
sub way</w>
struc tures</w>
stor es</w>
steak s</w>
stationn é</w>
star bu
starbu cks</w>
stan ds</w>
sta tion-service</w>
ssa de</w>
sprink lers</w>
sprin te</w>
sponso ris
spi der
spider man</w>
souff ler</w>
sou pe</w>
sou levé</w>
sor ti</w>
son n
so c
soc cer</w>
snowboar deurs</w>
smash e</w>
smash ant</w>
skateboar ds</w>
simil aires</w>
silhou ettes</w>
siff let</w>
si mul
sho oter</w>
sho ote</w>
ses sion</w>
servi ces</w>
ser pent</w>
sen i
sculp teur</w>
sculp te</w>
sal eté</w>
sa co
saco che</w>
s- volants</w>
s w
s tre</w>
s tiques</w>
s quel
s ph
s pe
spe e
spee do</w>
s par
s pa</w>
s elle</w>
s el
s am
répé tant</w>
récu père</w>
ré tro
ré ce
réce mment</w>
ré agi
ryth me</w>
rui nes</w>
ru ade</w>
roul eau</w>
rocail leux</w>
robo t</w>
ro me</w>
ri s</w>
ri en</w>
res ter</w>
res tant</w>
res pec
représen tation</w>
renif lant</w>
rem ue</w>
rem et</w>
rem bour
religi eux</w>
rela x
ran gées</w>
ra i</w>
ra fraîchi
r è
r ons</w>
quit tent</w>
quat uor</w>
qua ge</w>
qu es
qu anti
quanti té</w>
pê cheurs</w>
pé tales</w>
pé dale</w>
pulvéri se</w>
pui sse</w>
prél assant</w>
promen er</w>
proje tant</w>
professionn elles</w>
prod uire</w>
pro jetée</w>
pro fond</w>
pres se</w>
pr un
pouss ettes</w>
pou ces</w>
pos es</w>
por c</w>
poin tes</w>
po w
po ni
poni bles</w>
po n</w>
po il
plu tôt</w>
pleu rer</w>
plat eaux</w>
plan ter</w>
pla quant</w>
pla quage</w>
pl exe</w>
pl as
pl aine</w>
pistol ets</w>
pin gou
pil es</w>
photographi ent</w>
photographi e</w>
ph ysi
personn el</w>
per plexe</w>
pen se</w>
pen d</w>
pay san</w>
pati ne</w>
passi onn
pas sé</w>
partici per</w>
parallè les</w>
para ch
parach uti
par vient</w>
par tant</w>
pa tron</w>
pa on</w>
pa ges</w>
p éré</w>
p uits</w>
p eurs</w>
ouver ture</w>
ou s</w>
ot a</w>
orn ements</w>
onn ée</w>
onn euse</w>
ombre lles</w>
ok la
okla ho
oklaho ma</w>
ob tenir</w>
ob ama</w>
o ff
o f</w>
numéro s</w>
nu ée</w>
nou illes</w>
nom s</w>
ni ve
ni ke</w>
nettoy age</w>
nei g
nag euses</w>
n once</w>
n ol
médié vale</w>
mé d
mé cani
mè tre</w>
mè ches</w>
mâ cher</w>
mus elés</w>
mus eau</w>
mou tarde</w>
mou illés</w>
mor te</w>
mon té</w>
moi ne</w>
mix age</w>
mini -sho
mini-sho rt</w>
mini -
micros copes</w>
mi gnon</w>
mi ck
me tière</w>
me ill
me cs</w>
maî tre</w>
mauv aises</w>
mascu line</w>
mari onnette</w>
marathoni enne</w>
mar qué</w>
mar queur</w>
mal heureux</w>
mai ne</w>
mai gre</w>
m s</w>
m ement</w>
lumin euse</w>
lon gu
lin gerie</w>
ligh t</w>
li on</w>
li gue</w>
li eux</w>
li ce</w>
li br
les sive</w>
legg ing
legging s</w>
labrado r</w>
la s</w>
la c
lac ets</w>
kitesur feur</w>
kimon os</w>
kickbox ing</w>
ki es</w>
kayaki ste</w>
k es</w>
k arti
karti ng</w>
journ ali
jou es</w>
jet tent</w>
je té</w>
japon aise</w>
jailli ssant</w>
jailli r</w>
ja pon</w>
intéres sant</w>
interagi t</w>
inten se</w>
instal lés</w>
instal lent</w>
inféri eure</w>
indi quant</w>
inclin é</w>
in visible</w>
in on
in ette</w>
in cro
incro ya
in connue</w>
im patiemment</w>
i tal
i sol
i n</w>
i di
hô tesse</w>
ho t
ho l
hispan ique</w>
hip po
har pe</w>
han ches</w>
ham bur
hai es</w>
ha w
ha m</w>
h us
h en
gé antes</w>
guitar istes</w>
gri ses</w>
gri n
gran d-
gr ès</w>
gonf le</w>
gn ée</w>
glaci ères</w>
gen re</w>
ga s</w>
g ène</w>
fus ils</w>
fro tte</w>
friandi ses</w>
fraî chement</w>
frap pent</w>
franchi t</w>
fourn eaux</w>
four ni
four chette</w>
for tune</w>
for mer</w>
for ment</w>
foo ting</w>
fo ssé</w>
flo u</w>
fl éch
fl èche</w>
fi s
fi ne</w>
fau sses</w>
fai ts</w>
f an</w>
exécu te</w>
extr ê
expéri men
exhi be</w>
exci té</w>
ex pri
essu yant</w>
es se</w>
entass ées</w>
ennei gées</w>
eng ins</w>
enf ile</w>
enf ilant</w>
endor mie</w>
encoura geant</w>
encom bré</w>
en vol</w>
en c
empil ées</w>
em pêcher</w>
em prun
ef fort</w>
e d</w>
désar çonn
dépla cer</w>
démar rer</w>
dég us
débarras se</w>
déambul ateur</w>
dé mé
dé combres</w>
dé ball
dr ôles</w>
dou ze</w>
dor és</w>
dor ées</w>
domin os</w>
dog s</w>
dis tance</w>
dis ponibles</w>
dis ney</w>
dis co
disco thèque</w>
din de</w>
di z
di ant</w>
devan ture</w>
der nière</w>
den taire</w>
demi- cercle</w>
dal les</w>
d rome</w>
d oit</w>
d le</w>
d au
céré ales</w>
câ lins</w>
cré ant</w>
cra che</w>
couvre- chefs</w>
couver tes</w>
cour tes</w>
cour be</w>
cou ture</w>
cou n
cou chés</w>
cor niche</w>
cor nes</w>
conver se</w>
contre basse</w>
contem pl
cond uire</w>
concur r
con ser
comm uni
colori age</w>
coiff é</w>
coc a</w>
co pi
co o
clo u</w>
cli ente</w>
clar inette</w>
civi le</w>
citrou illes</w>
ci metière</w>
choisi ssant</w>
chiff on</w>
chevau chent</w>
chaî nes</w>
char gent</w>
cham pagne</w>
ch é
ch o</w>
cerf s-volants</w>
cel ui-ci</w>
ce la</w>
caucas ien</w>
cas cades</w>
cares sant</w>
car ic
car i
car avan
caravan e</w>
cani n</w>
cani ches</w>
can on</w>
can ettes</w>
camé ras</w>
camping- car</w>
cam peurs</w>
cahi er</w>
cag ou
caf étéria</w>
c és</w>
bé tail</w>
bru m
bron ze</w>
bri tan
brass ards</w>
box eur</w>
box ant</w>
bou ton</w>
bou s
bou cles</w>
bou cle</w>
bon homme</w>
bo b</w>
bi tu
bes oin</w>
bermu da</w>
be l</w>
bassi ne</w>
bar ils</w>
bar b
bander oles</w>
ban quette</w>
ban dés</w>
ban deaux</w>
balan cer</w>
bai gne</w>
ba gar
b ili
b il
avan t-
av ance</w>
audi toire</w>
au tobus</w>
ati ve</w>
at ti
at eurs</w>
assorti ment</w>
assorti es</w>
as tron
arti stiques</w>
arti san</w>
arrê tée</w>
arrê ter</w>
arrê tant</w>
arros eur</w>
arri vant</w>
ar m
ar c</w>
aqu a</w>
appréci e</w>
appro chent</w>
applau dissant</w>
anti émeute</w>
anti -
an nées</w>
an nonce</w>
an ne</w>
an i
an ges</w>
ami sh</w>
ajus tant</w>
ail les</w>
ai me</w>
ag ée</w>
ag ré
adver saires</w>
ador able</w>
ado ssée</w>
admi rent</w>
accroch ées</w>
a r</w>
a chats</w>
étu i</w>
étran ges</w>
éta gères</w>
ér ateur</w>
épi ce</w>
éparp illés</w>
énor mes</w>
éner gi
émer ve
élég ante</w>
élé vatrice</w>
électri cien</w>
él é</w>
él ère</w>
él as
écra se</w>
éco lière</w>
échauff ant</w>
éch elles</w>
éc ag
é v
é tonn
é tinc
étinc elles</w>
é t
é mor
é mi
é cl
é chau
é cage</w>
é bou
ébou ri
ébouri ff
è se</w>
â ché</w>
zé bré</w>
zz le</w>
z z</w>
y am
yam a
yama ha</w>
xi s</w>
wi ster</w>
wat er</w>
w or
w ing
wing -
wing- gu
wing-gu m</w>
w el
voyag eurs</w>
voyag eant</w>
voy agent</w>
voi rs</w>
voi liers</w>
voi ent</w>
vo û
visi ons</w>
vieill ards</w>
vi seur</w>
vi s</w>
veu t</w>
verti cale</w>
ver ser</w>
ver sent</w>
vend us</w>
ven ue</w>
ve ttes</w>
ve gas</w>
vag es</w>
va po
v ins</w>
v ill
vill ag
villag e
village ois</w>
v ates</w>
usten sil
ustensil es</w>
uri ante</w>
uni ce
unice f</w>
uk ul
ui ent</w>
téti ne</w>
télé comman
tél é</w>
tu tus</w>
tu nique</w>
tu iles</w>
tu eux</w>
trébu che</w>
trou peau</w>
trou ble</w>
trottin ettes</w>
tron çon</w>
trompe t
trompet tiste</w>
trico te</w>
trico t</w>
tri ème</w>
tri bu
tri bal</w>
tri ant</w>
tri angle</w>
tre il
treil lis</w>
traî nent</w>
trav en
traven tion</w>
trans parent</w>
traditionn elles</w>
tra l</w>
tr y</w>
tr ait</w>
tout- petits</w>
tournoy er</w>
tour ni
tourni quet</w>
tou ff
ton nière</w>
ton nier</w>
ton dant</w>
tom ate</w>
ti seur</w>
ti rés</w>
ti rées</w>
ti m
ti ges</w>
ti are</w>
thé tiseur</w>
tex tos</w>
tex ti
tes que</w>
terr i</w>
termin ant</w>
tend ues</w>
ten us</w>
te e
tee -shi
te ck
tch en
tchen ai
tchenai d</w>
tar te</w>
tam -
tam- ta
tam-ta m</w>
tail s</w>
ta xis</w>
ta plane</w>
t ères</w>
t wister</w>
t t
t ness</w>
sé min
sémin aire</w>
sèche- linge</w>
syn thétiseur</w>
sweat-shi rts</w>
sui vie</w>
sub stan
substan ce</w>
su mo</w>
su jet</w>
su c
stationn ée</w>
stat ues</w>
ssi ons</w>
ss és</w>
ss ante</w>
squel ette</w>
specta culaire</w>
sous- marine</w>
sou s-s
sous-s ol</w>
sou lèvent</w>
somm ets</w>
som br
sombr er
sol o</w>
so le</w>
smo kings</w>
sli de</w>
sk ier</w>
situ ation</w>
si vement</w>
si rène</w>
si nu
si f</w>
sho p</w>
ser vent</w>
ser rés</w>
seni ors</w>
secouri stes</w>
sculp tant</w>
scienti fiques</w>
sci ant</w>
saxopho ni
savou rant</w>
sauve teurs</w>
sau vages</w>
sau ts</w>
san té</w>
salu er</w>
sal ade</w>
saisi ssant</w>
sa bl
s tu
s oin</w>
s ha
s ex
sex y</w>
s ain
réfléchi t</w>
récol tes</w>
récol te</w>
réali ser</w>
ré ser
ré no
ré fu
réfu gi
ré fri
réfri g
ré d
rug b
rugb ym
ros ses</w>
ron dins</w>
roch et</w>
ro i</w>
ro ck
ris sage</w>
ri que</w>
ri n
ri deau</w>
res tent</w>
ren aiss
renaiss ance</w>
reli é</w>
relax ant</w>
rece voir</w>
rebon dir</w>
re trou
re tiré</w>
re f
ref le
refle ts</w>
rap porte</w>
randonn euse</w>
rambar des</w>
ram eurs</w>
ram an</w>
ra tisse</w>
ra ff
ra con
r su
r sem
qua trième</w>
qu ins</w>
qu ill
qu e
péri o
pério de</w>
pédal o</w>
pé tro
pé n
pâtis series</w>
pun k</w>
publi cs</w>
pu zzle</w>
pu ces</w>
pré fér
protè ge-
protes tation</w>
prote ctions</w>
proprié taire</w>
proje ction</w>
pro pr
propr es</w>
prin ces
pri mai
primai re</w>
pri e</w>
pres tation</w>
poê les</w>
pous sé</w>
pourch asse</w>
pou vez</w>
pou belles</w>
posi tionn
por tail</w>
por ama</w>
pop -
pop- corn</w>
pon g</w>
pom pes</w>
poil u</w>
po table</w>
po le</w>
po ches</w>
pneu matiques</w>
plu vi
plong ent</w>
plei nes</w>
plac ées</w>
pl âtre</w>
pié tonnier</w>
pié tonne</w>
pirat es</w>
ping- pong</w>
pin çant</w>
pin i
pin ces</w>
pin ce</w>
pilo tant</w>
pi t</w>
pi t
pi re</w>
pi ration</w>
pi ques</w>
pi eu
pieu vre</w>
photographi ée</w>
phi n</w>
ph ar
peu vent</w>
perru ques</w>
percu ter</w>
percu te</w>
per çant</w>
per on</w>
pen chés</w>
pen chées</w>
pen chent</w>
pellet tent</w>
pel le
pelle tant</w>
pein tes</w>
pei ne</w>
pay sa
patrou ille</w>
patri o
patin euse</w>
patien te</w>
pati ons</w>
pas t
particu lier</w>
parti es</w>
para chu
parachu tes</w>
par ten
panor amique</w>
pal ais</w>
pai n
pain tball</w>
pagn on</w>
paga ye</w>
pa per
p per</w>
p ali
pali ssade</w>
our eux</w>
orn em
ori gin
or née</w>
op posées</w>
ong le</w>
on nes</w>
on d
ond ul
ombra gée</w>
olo gi
ol o</w>
oisi ère</w>
og ie</w>
offi ciel</w>
oeu vres</w>
occu pées</w>
occu pations</w>
oc cas
occas i
occasi on</w>
ob èse</w>
o x
o sier</w>
o live</w>
o k</w>
o h</w>
o ffre</w>
o d</w>
nœu ds</w>
nouve aux</w>
ni ères</w>
ni ers</w>
nat te</w>
n égli
n ues</w>
n or
n euse</w>
n a</w>
mè tres</w>
musulman s</w>
musi cales</w>
muse lières</w>
mus elé</w>
mu le</w>
mou ette</w>
mou e</w>
moto -
mor ts</w>
mor tes</w>
mor dant</w>
mor d
montr er</w>
montagn euse</w>
mon i
mo quette</w>
mix te</w>
min uti
mick ey</w>
mi cile</w>
menui sier</w>
mel ons</w>
mati née</w>
mati n</w>
mas qué</w>
mas car
mascar a</w>
march eurs</w>
mar écage</w>
mar écag
mar rons</w>
mar elle</w>
mar c
marc el</w>
manœu v
maj es
mag ique</w>
m ères</w>
m ot</w>
m ets</w>
m atique</w>
légu me</w>
lég ère</w>
lé chant</w>
ly cé
lycé ens</w>
lux uriante</w>
lut teur</w>
lun ette</w>
lour d</w>
lon ge</w>
lo ts</w>
libr airie</w>
li ste</w>
les quel
lave -
lar ges</w>
lanter ne</w>
lam beaux</w>
lam a</w>
lai ssant</w>
la tine</w>
la bou
l ot
l euse</w>
kil ts</w>
ki tchenaid</w>
kayaki stes</w>
k y</w>
k art</w>
joy eux</w>
joy euses</w>
jong ler</w>
joli es</w>
japon aises</w>
jail lit</w>
ja zz</w>
j on
j &apos;</w>
isi ers</w>
intitu lé</w>
intern et</w>
inter dit</w>
instal lé</w>
ins titu
ins tant</w>
inhabi tuelle</w>
inachev é</w>
in vités</w>
in soli
in sec
in formation</w>
impressionn ant</w>
immob ili
illumin é</w>
ill ette</w>
i vre</w>
i den
iden tique</w>
hur lant</w>
hu maine</w>
hot dogs</w>
hori z
hor lo
ho rri
hippo drome</w>
hip pique</w>
hi rsu
hen né</w>
haut- par
handicap ée</w>
hambur gers</w>
ham po
h y
h ouse</w>
h eure</w>
gé ants</w>
gui rlan
gui don</w>
gu eu
gueu les</w>
gre en</w>
gravi r</w>
gran d
gr enou
gou ver
gou r
gol feur</w>
go ûte</w>
gli ssière</w>
glaci ère</w>
gla cé</w>
gi gan
gigan tesque</w>
ges ticule</w>
ger on</w>
ge les</w>
gam ins</w>
ga r</w>
ga p</w>
g h</w>
g eur</w>
g elée</w>
g elé</w>
g ei
fémini ne</w>
fu ri
fron tale</w>
franç ais</w>
fou ille</w>
for mée</w>
for geron</w>
for ce</w>
fo sse</w>
fla g</w>
fl exi
fix es</w>
fix e</w>
figu ri
fi tness</w>
fi e</w>
fi celle</w>
fes ses</w>
fer mé</w>
fau con</w>
fas cin
far ine</w>
fam ili
f rou
f re
f ol
f illette</w>
explo sion</w>
exer çant</w>
ex tension</w>
ex posant</w>
ex plique</w>
ex cep
europé en</w>
eu res</w>
essen ce</w>
es ti
es pè
es -
er e</w>
envelop pée</w>
entr el
entrel ac
ensole illé</w>
enregistr ement</w>
enfon çant</w>
enf once</w>
endor t</w>
endor mis</w>
end omm
encou rage</w>
en- cas</w>
en venue</w>
en roulé</w>
en levé</w>
en clos</w>
embras sé</w>
em pl
em bal
embal lage</w>
e çon</w>
e z</w>
e m</w>
e &apos;</w>
déploy ées</w>
déli ci
déjeu nent</w>
défen seurs</w>
défen d</w>
découp é</w>
décor ative</w>
décol ler</w>
dé tient</w>
dé pose</w>
dé ca
déca potable</w>
dé bl
dé balle</w>
dé ambulant</w>
du nes</w>
dres sée</w>
dr ai
drai nage</w>
dou ce</w>
donn ée</w>
do o</w>
do micile</w>
diz aines</w>
diverti t</w>
diver tir</w>
dispu tant</w>
dis posés</w>
direc t</w>
diplô mé</w>
différ ent</w>
dia porama</w>
di sent</w>
di es</w>
di enne</w>
di able</w>
dessi né</w>
deman dant</w>
del taplane</w>
de x</w>
de mment</w>
de ere</w>
dau phin</w>
dan te</w>
dal le</w>
da y</w>
d ons</w>
d ol
d ar
célé br
célébr ant</w>
célè br
célèbr ent</w>
câ lin
cy gne</w>
cui vre</w>
cui ts</w>
cu vette</w>
cu ve</w>
cu ler</w>
cu lent</w>
crê pe</w>
croi sent</w>
cra vates</w>
cra be</w>
cr u
cr oisière</w>
cour onnes</w>
coup é</w>
coun try</w>
cou tu
cou de</w>
cou chant</w>
corn ets</w>
contr ô
contr e-
cons titu
cond uisent</w>
concurr ents</w>
concur rent</w>
con travention</w>
con nu</w>
con grès</w>
complè tement</w>
comp te</w>
commer çant</w>
commer ç
comman des</w>
comman der</w>
comm émor
com pagnon</w>
com bat
combat tants</w>
colli e</w>
colle c
col ère</w>
col le</w>
coiff euse</w>
cock pit</w>
co ts</w>
co la</w>
clai rsem
cl ous</w>
cir eur</w>
ci trons</w>
ci rer</w>
chè vres</w>
choisi ssent</w>
chirurgi cale</w>
chin oise</w>
chi te
chi ste</w>
cher ie</w>
che wing-gum</w>
chat on</w>
charcu terie</w>
char pente</w>
char ger</w>
char bon</w>
cham pi
chac une</w>
cer isiers</w>
cen tral</w>
cen te</w>
cat ch</w>
carre four</w>
caric ature</w>
cares sent</w>
car rés</w>
car ré</w>
cana dien</w>
camé raman</w>
cam pe</w>
cagou le</w>
caf e</w>
ca mar
c œurs</w>
c rue</w>
c rosses</w>
c rochet</w>
c ris
c ations</w>
c arri
carri ole</w>
c an</w>
c ali
bé tonnière</w>
bé quilles</w>
bé né
bu n
bu m</w>
brou ss
broch ure</w>
britan nique</w>
brin gé</w>
bril le</w>
bri se</w>
br é
box eurs</w>
box er</w>
bous culent</w>
bou tons</w>
bou tonn
bou cherie</w>
bou cher</w>
bor dant</w>
bor ant</w>
bong os</w>
bo y
bo x</w>
bo ston</w>
bo sse</w>
blo qué</w>
bleu -
bleu- vert</w>
bl é</w>
bl ue</w>
bill et</w>
bi ne</w>
bi envenue</w>
beau té</w>
bavar dent</w>
bassi ste</w>
ban nières</w>
ban des</w>
bal lot</w>
bal cons</w>
bal ad
bagu ette</w>
b ant</w>
aéro sol</w>
autom ati
automati ques</w>
autoch tones</w>
autoch tone</w>
atter rissage</w>
atta chent</w>
ati on
at terri</w>
at o
assu rer</w>
assis tant</w>
assi ed</w>
ascen seur</w>
as t</w>
artifi ciel</w>
arbi tres</w>
ar ra
ar chite
ar chet</w>
ar borant</w>
appuy ées</w>
appar tenant</w>
appar tements</w>
appar ence</w>
appar emment</w>
appar aî
appar ai
ap pui
ap plique</w>
ap pli
ap pel</w>
anti qui
an geles</w>
an as</w>
an anas</w>
amar ré</w>
am oureux</w>
am our</w>
am er
allu mée</w>
all ai
al ement</w>
al bum</w>
ajus ter</w>
agré able</w>
agricul teur</w>
agi tée</w>
af rique</w>
af fe
adres se</w>
ad or</w>
ad o</w>
acrobati ques</w>
accroch ée</w>
accroch ent</w>
accompagn ée</w>
access oires</w>
acc élé
acc élère</w>
ac tuellement</w>
ac clam
a d</w>
a ce</w>
a boyant</w>
5 0</w>
0 0</w>
- vous</w>
û ts</w>
ï que</w>
év è
évè nement</w>
étudi er</w>
étudi ent</w>
étre in
étrein te</w>
étran gers</w>
éti quettes</w>
éti quette</w>
étal s</w>
ét ei
équili bré</w>
équi page</w>
équ estre</w>
éparp illées</w>
ép rou
émi ssion</w>
émer ge</w>
élég antes</w>
élé gants</w>
élas th
élasth anne</w>
él ag
écri vent</w>
éco lier</w>
éclai rées</w>
éclabou ssée</w>
éclabou sser</w>
échi qu
échiqu ier</w>
échau ffer</w>
éc ess
ébouriff és</w>
é va
éva cu
é tri
é plu
é ping
é peron</w>
é mo
émo tion</w>
é li
ç u</w>
zombi es</w>
zombi e</w>
y- up</w>
y euse</w>
y an
wo od</w>
wi i</w>
walk ie</w>
w on
w he
w girl</w>
w c</w>
vérifi er</w>
vél o
vé ran
véran da</w>
voyag eur</w>
voy er</w>
vol ante</w>
voi lées</w>
vo te</w>
vo les</w>
vo i</w>
vitr ées</w>
visi tant</w>
vi vement</w>
vi v
vi sée</w>
vi sé</w>
vi gour
vigour eusement</w>
vi et
viet n
vietn ami
verdoy antes</w>
vel u</w>
var e
vare ch</w>
vapo ris
val lon
vallon né</w>
val eur</w>
va quent</w>
v ons</w>
v aux</w>
v ap
v an</w>
us tr
ustr é</w>
urb ains</w>
uni sson</w>
uni quement</w>
ukul élé</w>
ui sante</w>
u sa</w>
u mini
umini um</w>
u m
um eau</w>
u er</w>
télépho niques</w>
télécomman dé</w>
té tho
tétho scope</w>
té m
tém oin</w>
tur bans</w>
tu li
tuli pes</w>
tru cs</w>
trou pes</w>
trou pe</w>
trot tant</w>
tricy cles</w>
trico ter</w>
tribu nes</w>
tri o</w>
tri gué</w>
tri ent</w>
trans por
tran chée</w>
tra pè
trapè ze</w>
tra ces</w>
tr e-
toy ota</w>
toy ens</w>
tourn es
tourn ent</w>
tourn e
tourne vis</w>
tour noi
touff ue</w>
tou rs</w>
tor se-
torse- nu</w>
toi lette</w>
to re</w>
titu de</w>
tis sage</w>
tin é</w>
til lante</w>
ti ssent</w>
ti ns</w>
ti fi
ti ens</w>
texti le</w>
termin ent</w>
tend o</w>
tend ent</w>
ten ces</w>
tem por
tempor aire</w>
tee-shi rt</w>
teck el</w>
tech nol
technol ogie</w>
tech ni
techni cien</w>
te- fille</w>
te- ciel</w>
tar tan</w>
tan ément</w>
tan g
tang ul
tambouri n</w>
tambou rs</w>
tal i
tail lés</w>
tabl ement</w>
ta r</w>
ta mi
ta g
ta bac</w>
t ty</w>
t ot
t ha
t est</w>
t elle</w>
t asses</w>
sé jour</w>
sé d
séd uisante</w>
sé chant</w>
symbo le</w>
sy st
syst ème</w>
suspend ues</w>
surplom b</w>
surf ent</w>
sur ée</w>
sur vêtements</w>
sur volant</w>
suppor ts</w>
sui s</w>
su çant</w>
su s-
su es</w>
su d-
stu pi
str o
stro bo
strobo sco
strobosco piques</w>
str ait</w>
stor y</w>
ste ak</w>
ss en
squ ée</w>
spéci ali
spor tifs</w>
sponsoris é</w>
spec tus</w>
sous- marin</w>
souff re</w>
souff lent</w>
sou deur</w>
sou dage</w>
sou che</w>
son ne</w>
sombrer o</w>
so das</w>
smash er</w>
sl alo
skat er</w>
sk im
siro te</w>
siro tant</w>
simul tanément</w>
sim pl
simpl ement</w>
si tue</w>
si ni
sini stre</w>
si ne</w>
si g
si de</w>
si de-
side- car</w>
si ble</w>
sho wgirl</w>
seu ls</w>
servi s</w>
ser ts</w>
ser rée</w>
ser rer</w>
ser re-
serre- tête</w>
ser pil
ser pen
sem ents</w>
se ins</w>
se cs</w>
se con
se c</w>
se a
sculp té</w>
scou t</w>
sc in
savou r
savour eux</w>
sau na</w>
sau mon</w>
sau ce</w>
sar i</w>
san tes</w>
san i
sani taires</w>
san gle</w>
san dale</w>
sam ou
samou ra
saisi r</w>
sain t</w>
sabl onneuse</w>
sa ïque</w>
s- nu</w>
s équ
s téthoscope</w>
s tore</w>
s ters</w>
s s</w>
s pace</w>
s hi
s hampo
s cru
rétro -
répon d</w>
réfrig érateur</w>
réfléchiss antes</w>
réd uit</w>
récupé rant</w>
récu péré</w>
récol tent</w>
récipi ents</w>
réali se</w>
ré si
ré cré
ré chaud</w>
rè gle</w>
roul ée</w>
rou pier</w>
rou illé</w>
ro vi
ro buste</w>
ri tuelle</w>
ri ste</w>
ri gol
ri di
retourn ée</w>
représen te</w>
renver sée</w>
ren voyer</w>
rempl ir</w>
rembour ré</w>
regrou pées</w>
regard é</w>
recou verts</w>
recou vertes</w>
rec tement</w>
rec tangul
rebon dit</w>
re venant</w>
re trouve</w>
re trai
re tirer</w>
re tient</w>
re pos</w>
re pli
repli é</w>
re join
re cy
re cule</w>
re constitu
re cherche</w>
ray ant</w>
ran gs</w>
ram ique</w>
ram es</w>
rai nes</w>
rai des</w>
racon te</w>
ra pe</w>
ra ce</w>
r âteau</w>
r oi
roi tement</w>
r entre</w>
r entrant</w>
r endre</w>
r a</w>
quoti dien</w>
qu és</w>
qu ais</w>
pétro le</w>
pé li
pè se</w>
pè rent</w>
pâtis serie</w>
pâ ques</w>
publici taires</w>
pu tt</w>
pu ma</w>
présen tent</w>
présen tat
présen tant</w>
prépar ation</w>
prél assent</w>
préfér é</w>
préci pi
pré serv
proté gée</w>
prote cteurs</w>
proprié taires</w>
prom ou
promou vant</w>
proje té</w>
profon dé
profondé ment</w>
profi ter</w>
pro visions</w>
pro spectus</w>
pro pose</w>
pro pan
propan e</w>
pro gra
pro fil</w>
prin temps</w>
pres sent</w>
pre in
prein tes</w>
prati quer</w>
pr on
pow er
power point</w>
pourch assent</w>
pour rait</w>
pou dr
posi tionne</w>
pos térieur</w>
pos ter</w>
pos t-
pos session</w>
porte- voix</w>
porte- bébé</w>
por tière</w>
por tante</w>
por cs</w>
pop corn</w>
pon cho</w>
pon cho
poncho s</w>
pon ce</w>
pom pons</w>
pom pe</w>
polici ère</w>
poli tiques</w>
poli tique</w>
pol lu
poin tu</w>
poin gs</w>
poign ées</w>
poign ets</w>
po ker</w>
pneu matique</w>
pluvi euse</w>
pli ant</w>
pleu rant</w>
plas tron</w>
plan tés</w>
plan eur</w>
pla ques</w>
pla quent</w>
pl i</w>
pl e
ple ins</w>
pié tiné</w>
piqu eur</w>
pini ons</w>
pingou in</w>
pili ers</w>
pil lons</w>
pier cin
piercin gs</w>
pi ssen
pi rer</w>
pi e</w>
pi ck
pick -
pick- up</w>
pi c</w>
physi que</w>
photographi és</w>
phar ma
ph are</w>
peti te-fille</w>
percu ssions</w>
per man
per d</w>
per cer</w>
peluch eux</w>
pel et</w>
pein tures</w>
pei gne</w>
pe lage</w>
pav és</w>
pav illon</w>
patri ck</w>
pati nant</w>
pati nage</w>
patau gent</w>
patau geant</w>
patau ge
patauge oire</w>
past èque</w>
passi on</w>
pas teur</w>
parten aire</w>
parallè lement</w>
parachuti ste</w>
par ka</w>
par e</w>
par e-
par celle</w>
paper asse</w>
pan y</w>
pan neuse</w>
pan da</w>
pal our
palour des</w>
pa pillons</w>
pa ble</w>
p se</w>
p ains</w>
ox ford</w>
ornem en
origin aire</w>
origi nes</w>
orien taux</w>
orien tales</w>
ordin aires</w>
ordin aire</w>
or gue</w>
or age</w>
op posée</w>
on ei
onei ge</w>
ombra gé</w>
om étri
ologi que</w>
ol lie</w>
ok é</w>
oi ng</w>
oi es</w>
offici els</w>
oeu vre</w>
ock s</w>
occu pée</w>
occu pé</w>
oc k</w>
obser vé</w>
obser v
o xy
o w
o pinions</w>
o hi
ohi o</w>
né tiquement</w>
nouvel les</w>
nouve l</w>
nourri ssant</w>
nom bres</w>
no tre</w>
no te</w>
no eu
nive aux</w>
nin tendo</w>
ni es</w>
neig eux</w>
navigu ent</w>
n écess
n y</w>
n ue</w>
n ing</w>
n ave
n amique</w>
mû r</w>
mê lent</w>
mélan ger</w>
mélan gent</w>
médié vaux</w>
médié val</w>
médi tant</w>
médi cale</w>
méd ailles</w>
mécani cien</w>
mé ga
méga phone</w>
mé can
mécan ique</w>
mâ le</w>
mus cu
muscu lation</w>
mus cles</w>
multi ples</w>
mou sine</w>
mou se</w>
mou lants</w>
mou lante</w>
mou che</w>
motocy cli
motocy clette</w>
moto- cross</w>
mot oneige</w>
mon ster</w>
mol let</w>
mol le</w>
moi nes</w>
mo squée</w>
mo saïque</w>
mo ris
mo que</w>
mo i</w>
mm er</w>
mix eur</w>
mir oirs</w>
mi- hauteur</w>
mi tés</w>
mex ique</w>
mes u
mes sage</w>
menui serie</w>
men us</w>
men diant</w>
meill eure</w>
me e
mee ting</w>
mascu lin</w>
mas sues</w>
mari ach
mariach i</w>
marathoni ens</w>
mar k</w>
mar k
mark et</w>
mar ie</w>
mar e</w>
mar ais</w>
maqu illées</w>
maqu iller</w>
manœu vrant</w>
manu els</w>
manne quins</w>
man que</w>
man ie</w>
mail let</w>
mag iques</w>
mag i
magi cien</w>
ma s</w>
ma chette</w>
ma c</w>
m ènent</w>
m y
m il
m eurs</w>
m all
mall ette</w>
lé z
lé ger</w>
lux u
lux e</w>
lut tant</w>
lou che</w>
lot erie</w>
longu eur</w>
lo ve</w>
lo com
lo caux</w>
li ts</w>
li ster</w>
li mousine</w>
li esse</w>
li es</w>
li c</w>
lesquel s</w>
le- même</w>
le y</w>
le i</w>
le go</w>
le cture</w>
le cteur</w>
lave- vaisselle</w>
lanc és</w>
lanc ée</w>
lan cer
lam e</w>
la y-up</w>
la veur</w>
la tin
la k
lak ers</w>
la des</w>
l âché</w>
l oin
l enti
lenti lle</w>
l en
len tement</w>
l em
l ate
late x</w>
l aiss
kimon o</w>
ki tty</w>
kar a
kara oké</w>
k en
ju ge</w>
journali ste</w>
jou r
jong leur</w>
jon ché</w>
joli ment</w>
jogg eurs</w>
jo ker</w>
ja ck
ja b</w>
j er
is land</w>
intéres santes</w>
inté gr
interview e</w>
interagi ssant</w>
instal lées</w>
instal ler</w>
insoli te</w>
ins piration</w>
incroya ble</w>
inclin ée</w>
inclin able</w>
inachev ée</w>
in trigué</w>
in ti
in n</w>
in dex</w>
in connu</w>
impri mée</w>
impres sion</w>
imm er
immer gé</w>
im péri
im pro
im portante</w>
im portant</w>
illumin ée</w>
ill i</w>
ig n</w>
idi ot</w>
i x</w>
i ssent</w>
i se</w>
i rri
i m</w>
i gn
i cots</w>
hy dr
hus ky</w>
hu ttes</w>
hu moris
hors- bord</w>
horlo ge</w>
horiz on
hol lister</w>
hispan iques</w>
his toire</w>
her o</w>
hawaï en</w>
har icots</w>
han gar</w>
habill er</w>
habi t</w>
h ui
h il
h el
gé ométri
guirlan des</w>
gui tar</w>
guer rier</w>
gu ée</w>
gril lades</w>
gri gno
grigno te</w>
grenou ille</w>
grat te-ciel</w>
graphi que</w>
grand- mère</w>
grand s-
gra ve</w>
gr ains</w>
gou dr
goudr onnée</w>
gon flé</w>
go sse</w>
gn ets</w>
gli ssent</w>
gla ç
gg y</w>
ger eusement</w>
ge mment</w>
gau f
garde- corps</w>
gar des</w>
gar den</w>
galo pe</w>
ga y</w>
g è
g raines</w>
g ot</w>
g i</w>
g ham</w>
g at
fré nétiquement</w>
fris ée</w>
fri te</w>
fre es
frap pés</w>
fran ges</w>
fran c</w>
fr ustré</w>
fr aise</w>
fourni tures</w>
fourg on</w>
fou illant</w>
fou gères</w>
form ations</w>
for te</w>
for mé</w>
for mant</w>
fonc ées</w>
fon s</w>
fol le</w>
fléch ettes</w>
flou s</w>
flot teurs</w>
flot teur</w>
fleu ris</w>
flam boyant</w>
fla mme</w>
fl û
fl âne</w>
figuri nes</w>
fi èrement</w>
ffe e</w>
ff e</w>
feuill ages</w>
feu illage</w>
fer rovi
fer mée</w>
faç onne</w>
fau sse</w>
fas t</w>
fam illes</w>
fai tes</w>
fac teur</w>
fabri qué</w>
fa vo
fa ci
f ûts</w>
f éro
f lic</w>
f fons</w>
extré mités</w>
expérimen té</w>
expri me</w>
explor ateur</w>
explor ant</w>
exper t</w>
exi on</w>
exhi bant</w>
exci tant</w>
exam en</w>
ex o
eur re</w>
eu x-
espè ce</w>
espagno le</w>
espa gne</w>
escri meurs</w>
escar pée</w>
es trade</w>
es ca
esca beau</w>
er am
envelop pe</w>
entrelac és</w>
entre jambe</w>
entou re</w>
enterr é</w>
enregistr euse</w>
ennei gés</w>
enla cent</w>
engag ement</w>
enflamm é</w>
encad rées</w>
en vole</w>
en chaî
employ ées</w>
employ ée</w>
empil és</w>
emmitou fl
embar cation</w>
em preintes</w>
em pile</w>
el le-même</w>
ei n</w>
effe ts</w>
eff rayée</w>
e k
dî nent</w>
détend re</w>
désor dre</w>
désor donné</w>
désarçonn er</w>
déploy é</w>
dénei ger</w>
délici euse</w>
délabr ée</w>
déjeu nant</w>
dégui ser</w>
découp és</w>
décor atif</w>
décor ant</w>
décol let
déci der</w>
déci dent</w>
déball ant</w>
dé tr
dé tourne</w>
dé tournant</w>
dé ta
dé roulent</w>
dé roule</w>
dé rape</w>
dé pri
dé passer</w>
dé passe</w>
dé panneuse</w>
dé neige</w>
dé mène</w>
dé mo
dé gag
dé formée</w>
dé file</w>
dé es</w>
dé di
dé cou
dé chaî
dy namique</w>
drib bl
dri ble</w>
drap ée</w>
dou c
douc ement</w>
do s-nu</w>
do jo</w>
diver tissant</w>
distribu ant</w>
distri b
distrib ue</w>
dis ques</w>
dis per
diri gés</w>
direc tement</w>
diplô me</w>
din des</w>
diffi cile</w>
di van</w>
di re</w>
di rait</w>
di n</w>
di le</w>
di eu</w>
di er</w>
di ennes</w>
dessi nées</w>
dessi nent</w>
des sus-
des serts</w>
des sert</w>
des ign</w>
denti ste</w>
de z</w>
de voirs</w>
de vi
dans eur</w>
dan gereusement</w>
dal mati
da tion</w>
d y</w>
d ram
d h
d gers</w>
d g
d d
d an</w>
célé b
céléb rer</w>
cé ramique</w>
cy gnes</w>
cy clo
cy cla
cycla ble</w>
cupca kes</w>
cupca ke</w>
cul ti
cul aires</w>
cue illant</w>
crê pes</w>
cro cs</w>
cro co
croco dile</w>
cre vettes</w>
cr ânes</w>
cr uche</w>
cr am
cram pons</w>
cow- girl</w>
cow boys</w>
couv rir</w>
coutu rière</w>
coussi ns</w>
cour onne</w>
coul oirs</w>
cou teaux</w>
cou sant</w>
cou li
cou ette</w>
cornemu ses</w>
cor é
cor tège</w>
cor rectement</w>
coo kies</w>
contrô ler</w>
contrac tant</w>
contempl ant</w>
conser ves</w>
confor tablement</w>
condi tions</w>
cond uite</w>
concentr és</w>
con çu</w>
con vention</w>
con tin
con sul
con ey</w>
con cierge</w>
con ces
con ce
compé tences</w>
commerç ante</w>
commerci ale</w>
commer ce</w>
comm unique</w>
com prend</w>
com prenant</w>
com pany</w>
com pagne</w>
colo rier</w>
colle y</w>
coiff ée</w>
coi n
coi ffer</w>
co q</w>
co mique</w>
co lis</w>
classi ques</w>
clai rière</w>
cl ée</w>
cl asseur</w>
cir que</w>
cier ges</w>
ci té</w>
ci toyens</w>
ci rant</w>
ci eux</w>
ci e</w>
ci de</w>
châ tai
chu cho
chucho te</w>
cho ns</w>
chirurgi cal</w>
chin ato
chinato wn</w>
chi ffons</w>
chev alier</w>
chau dement</w>
char gée</w>
chan teurs</w>
cham bres</w>
cham al
chamal lo
chal umeau</w>
cha pelet</w>
ch œur</w>
ch asser</w>
ch as
ch arri
ch ages</w>
cer f</w>
cen taines</w>
cavali ère</w>
cau se</w>
casser oles</w>
carre lée</w>
carn et</w>
cares ser</w>
car dia
car d</w>
car ac
carac tères</w>
capi taine</w>
cap u
cap es</w>
cana diens</w>
can ine</w>
camar ades</w>
cam eram
cali for
cal eçon</w>
cai ssière</w>
cahi ers</w>
cad res</w>
cad dies</w>
ca ke</w>
ca cher</w>
ca chent</w>
c ées</w>
c roupier</w>
c rier</w>
c eux</w>
c entrée</w>
c ages</w>
c a</w>
bû cher
bû che</w>
béné voles</w>
bé rets</w>
bâ ches</w>
bur q
bur ger</w>
bun ker</w>
bu ri
bu ggy</w>
bronz ant</w>
broch ettes</w>
bril lent</w>
bran chages</w>
br assi
brassi ère</w>
br asse</w>
bow l</w>
boutonn ée</w>
boulever sée</w>
boulever sé</w>
bou tiques</w>
bou s</w>
bou que
bou ill
bou dd
bou cli
bou chée</w>
bot te</w>
bor dures</w>
bor der</w>
bong o</w>
bon dissant</w>
bo te</w>
bo ok</w>
bo dy
bo a</w>
bm w</w>
bless ée</w>
bl ème</w>
bl essu
bitu me</w>
bin s</w>
bijou terie</w>
ber lin</w>
ber gers</w>
bei gnets</w>
be c</w>
be ag
beag le</w>
be ach
bavar der</w>
bat tue</w>
bat tu</w>
bas es</w>
bas culer</w>
barbi e</w>
barb elés</w>
bar man</w>
bar bote</w>
ban k</w>
bam bous</w>
balanç oires</w>
balan celle</w>
bala yer</w>
bala ye</w>
bal lots</w>
bal aient</w>
bai ssant</w>
bai gn
bagar re</w>
bac s</w>
ba le</w>
b usi
b ille</w>
b eurre</w>
b el
b arri
b aille</w>
aéri en</w>
avi ron</w>
avi ons</w>
avi ateur</w>
aver tissement</w>
aven ture</w>
avant- bras</w>
avan tage</w>
avan cer</w>
auto collants</w>
au- dessous</w>
au te</w>
au quel</w>
au bes</w>
au be</w>
attra pé</w>
attra pent</w>
atta chant</w>
atta bl
att ei
ation aux</w>
athlé tiques</w>
at tire</w>
astron aute</w>
assu re</w>
assistan te</w>
assi sent</w>
assembl ée</w>
ass oit</w>
ass oient</w>
ass ai
asper gé</w>
as sortis</w>
as sorti</w>
as semble</w>
as s</w>
artisan ale</w>
arrê tés</w>
arran geant</w>
arran ge</w>
arm ure</w>
argen tés</w>
ar més</w>
ar d
ar ché
appui ent</w>
appréci er</w>
appr endre</w>
appli quant</w>
apparaî t</w>
ap prennent</w>
antiqui tés</w>
ani mées</w>
ang els</w>
anci ens</w>
amérin diens</w>
ami cale</w>
ambul ance</w>
am pli</w>
am phi
allu mé</w>
allu mer</w>
allem ands</w>
alimen tation</w>
ali gnent</w>
al uminium</w>
al titude</w>
al li
al gues</w>
ai r
agrip pe</w>
agrip pant</w>
agricul teurs</w>
ag res
ag ili
affron ter</w>
aff al
ad roitement</w>
ad a</w>
accélé rant</w>
accom pagne</w>
acciden té</w>
acc rocher</w>
acc e
ac cueille</w>
ac cou
ac corde</w>
abe ille</w>
aban donné</w>
a m</w>
a i</w>
a h</w>
a bon
a .</w>
2 4</w>
0 8</w>
ô me</w>
ê tes
éven tuellement</w>
éven tails</w>
évacu er</w>
étudi antes</w>
étran gères</w>
étran gère</w>
étr er</w>
éti rem
étirem ents</w>
éti qu
étei gnent</w>
étal ant</w>
éro s</w>
équi tation</w>
équi pée</w>
éprou vette</w>
éplu chant</w>
éping lés</w>
épar se</w>
ép aiss
épaiss eurs</w>
énergi quement</w>
émerve illée</w>
élé ment</w>
éli min
éle vé</w>
éle vage</w>
élan cent</w>
élabor ée</w>
élabor é</w>
él er
éjec tée</w>
égou ts</w>
écu r
écur eu
écureu il</w>
écri ts</w>
écri teau</w>
écou teur</w>
écoss aises</w>
éclai rés</w>
éclabou ssé</w>
écla t</w>
écl e
écle c
éclec tique</w>
écl at
échauff ent</w>
échantil lons</w>
échan geant</w>
échafau d</w>
éch ap
écar tées</w>
ébrou ent</w>
ébrou ant</w>
é tirent</w>
é tendant</w>
é tabl
établ i</w>
é sus</w>
é rale</w>
é ra
éra ble</w>
é pui
épui sé</w>
é ma</w>
é gy
égy p
é di
é cor
écor ce</w>
é clair</w>
è tres</w>
è tre</w>
è f
è de</w>
è ches</w>
çonn erie</w>
ç onne</w>
â chée</w>
à -vous</w>
zz i</w>
z une</w>
z ig
zig z
zigz ag
zigzag uer</w>
z els</w>
z ar</w>
z aine</w>
ympi ques</w>
ym ca</w>
yan ke
yanke es</w>
y sty
ysty rène</w>
y oy
yoy o</w>
y o</w>
y ette</w>
y al</w>
y &apos;</w>
x 4</w>
wor l
worl d</w>
won der</w>
wo k</w>
wi ffer</w>
whe els</w>
wel ls</w>
wel co
welco me</w>
we e
was a
wasa ki</w>
walk man</w>
wa ys</w>
w s</w>
w ing</w>
w es
wes ter
wester n</w>
w ei
wei ser</w>
vê tr
vêtr és</w>
vélo taxi</w>
vé té
vété rans</w>
vol ée</w>
vol ti
volti geur</w>
vol ter</w>
vol aille</w>
voi tu
voitu rette</w>
voi si
vo tre</w>
viv ante</w>
visi teurs</w>
visi blement</w>
visa gent</w>
violon istes</w>
viol ence</w>
ving taine</w>
vietnami en</w>
vieill otte</w>
vie illard</w>
vic tori
vi vent</w>
vi vant</w>
vi ser</w>
vi sant</w>
vi re
vire volter</w>
vi kings</w>
vi gno
vi gne</w>
vi es</w>
vi dé
vi de-
vide- g
vide-g ren
vide-gren ier</w>
vi cti
victi me</w>
vi an
vian des</w>
vi al</w>
veu lent</w>
ver sion</w>
ver sale</w>
ver n
ver glacée</w>
ver glacé</w>
vend euse</w>
ven til
ve sti
ve s
ves tons</w>
ve lu
ve lle</w>
vaporis ée</w>
vap eur</w>
va ts</w>
va se</w>
v rent</w>
v re
vre té</w>
v rai</w>
v ois</w>
v o</w>
v illon</w>
v ati
v as
v ales</w>
v ais</w>
v ain
vain c
vainc re</w>
v ador</w>
uri noir</w>
urgen ti
urgenti stes</w>
universi taires</w>
uni ques</w>
uni on</w>
uni e</w>
ul k</w>
ui de</w>
u te</w>
u sa
u re
u p
u ni</w>
u nau
unau taire</w>
u ge</w>
u g
u f
uf c</w>
u demment</w>
u ction</w>
téri eures</w>
téri elle</w>
télé viseur</w>
télé ph
téléph érique</w>
tur qu
tur eux</w>
tu re
tu niques</w>
tu eusement</w>
tu euse</w>
tu es</w>
tu de</w>
tru elle</w>
trouv é</w>
trot toirs</w>
trico ts</w>
tri ture</w>
tri stes</w>
tri om
tri colore</w>
tri ces</w>
tri bale</w>
tri bal
tribal es</w>
tri b
trib aux</w>
tress é</w>
tren taine</w>
trem pli
trempli n</w>
traî née</w>
traî neaux</w>
traî ne</w>
trave s
traves ti</w>
travail l
travaill euses</w>
trav ag
transpor ts</w>
trans versale</w>
trans porter</w>
trans portent</w>
trans pire</w>
trans parents</w>
trans par
tran quill
tranquill ement</w>
tra jet</w>
tra des</w>
tra ction</w>
tra cer</w>
tr èf
tr i</w>
tout- terrain</w>
tournoi e</w>
tournes ol</w>
tourn és</w>
tourn e-
tourne- disque</w>
touris me</w>
tou ché</w>
tot alement</w>
tor y</w>
tor til
tortil las</w>
tor si
tond ue</w>
tomb ées</w>
toi ts</w>
to r</w>
to ast</w>
tiss ée</w>
tis h</w>
tir oir</w>
tir euse</w>
tionn elle</w>
tin i</w>
tim e-
time- la
time-la pse</w>
til les</w>
til lant</w>
ti ème</w>
ti ves</w>
ti quer</w>
ti nu
ti mo
timo re</w>
ti m</w>
ti cules</w>
ti ck
tick ets</w>
ti ce</w>
tho mas</w>
th ème</w>
th e
tes te</w>
terr ant</w>
terr aine</w>
termin us</w>
ter ro
ter ri
ter res</w>
ter ne</w>
ter ies</w>
ter gent</w>
ten tative</w>
ten ance</w>
te ils</w>
te e-
tee- ball</w>
te am</w>
tau reaux</w>
tatou er</w>
tar tes</w>
tar ds</w>
tan tes</w>
tan s</w>
tan k</w>
tan de
tande m</w>
tambouri ns</w>
tal us</w>
tal ki
talki e-
talkie- walkie</w>
tal k
tal ement</w>
tail lé</w>
tail leur</w>
tail les</w>
tag gée</w>
tach et
tabl ette</w>
ta tiquement</w>
ta tif</w>
ta po
tapo te</w>
ta mment</w>
ta gué</w>
ta che</w>
t ôle</w>
t v</w>
t lem
t eux</w>
t euses</w>
t en</w>
t elles</w>
séri eux</w>
séqu oi
séquoi a</w>
sépar ées</w>
sépar e</w>
sé curi
sé ché</w>
sèche- cheveux</w>
synchroni sées</w>
symbo les</w>
swe et</w>
swe a
swea ts</w>
sw ing</w>
suspen sion</w>
sus hi
sushi s</w>
surveill er</w>
surveill ance</w>
surplomb ent</w>
surdimensionn é</w>
sur é</w>
sur volent</w>
sur vole</w>
sur pris</w>
sur gi
sur chargé</w>
super -
super- h
super-h éros</w>
sud- est</w>
suc c
succ ès</w>
su spec
suspec t</w>
su péri
supéri eur</w>
su ng</w>
su mmer</w>
su d</w>
su ce</w>
stupi de</w>
str ing</w>
sti qu
stiqu aire</w>
stationn ées</w>
stationn aire</w>
star ting</w>
sta l</w>
sta f
sta bili
ssi ers</w>
ss ées</w>
ss eaux</w>
ss ar
ssar des</w>
spéci ale</w>
sprink ler</w>
sponsoris ée</w>
sph ères</w>
spar e</w>
souri res</w>
sour ces</w>
sour ce</w>
souff lé</w>
sou th</w>
sou terraine</w>
sou terrain</w>
sou tenu</w>
sou levées</w>
sou dent</w>
sou dant</w>
sou coupe</w>
sonn ette</w>
som p
som nol
sol é</w>
sol s</w>
sol aire</w>
soign ée</w>
soi ns</w>
soi gne</w>
soi ent</w>
soi e</w>
soci al</w>
so ri
sori en
sorien té</w>
so mmes</w>
snowboar ds</w>
sno op
snoop y</w>
slalo me</w>
sl ei
slei gh</w>
skim board</w>
ski euse</w>
skateboar der</w>
sk et
sket ch</w>
sk e</w>
siro p</w>
sinu eux</w>
sign al</w>
sig ni
si ère</w>
si t</w>
si ons</w>
si l</w>
si gnant</w>
si fs</w>
si ens</w>
si bili
sho ot</w>
shampo oing</w>
sha s</w>
ses pé
sespé ré
sespéré ment</w>
ses am
sesam e</w>
serv i</w>
serpil lière</w>
serpen tins</w>
ser rées</w>
ser rure</w>
sen tir</w>
sen tant</w>
semi- remorque</w>
sembl er</w>
sembl ables</w>
sel lés</w>
sei n</w>
secouri ste</w>
secon d</w>
sea haw
seahaw ks</w>
se- neige</w>
se vel
se ils</w>
se g
seg way</w>
sculp ter</w>
scol aires</w>
sco ob
scin tillante</w>
sci er</w>
sci ent</w>
sci ence</w>
sc ra
scra b
scrab ble</w>
sc o</w>
saxophoni stes</w>
saxophoni ste</w>
saxopho nes</w>
sav onneuse</w>
sauve teur</w>
sauci sse</w>
sau ver</w>
sau teur</w>
sau poudre</w>
sau f</w>
sang les</w>
sandwi ches</w>
samoura ï</w>
sam sung</w>
sa tions</w>
s œurs</w>
s wiffer</w>
s un</w>
s téri
s tones</w>
s ter
s sements</w>
s quet</w>
s qu&apos;</w>
s pin
spin ning</w>
s pag
spag h
s nor
snor k
snork el
snorkel ing</w>
s nac
snac k</w>
s ille</w>
s ili
s ha</w>
s exe</w>
s ette</w>
s el</w>
s cuits</w>
s chi
s ait</w>
s ais</w>
s ai
réuni t</w>
rétro- projecteur</w>
rési denti
résidenti el</w>
répon ses</w>
répar ateur</w>
réfugi és</w>
réfugi ent</w>
réfléchi ssent</w>
réfléchi r</w>
réfl exion</w>
rédi geant</w>
récu pèrent</w>
récré atif</w>
réconfor te</w>
réconfor tant</w>
récol tés</w>
récol tant</w>
récep tionn
réagi ssent</w>
ré us
ré ti
ré sille</w>
ré seau</w>
ré pan
ré jou
ré g
ré fér
référ ence</w>
ré création</w>
ré chauff
réchauff ent</w>
ré action</w>
rui ne</w>
rugbym en</w>
rugbym an</w>
ru m</w>
rri tos</w>
rou tine</w>
rou tier</w>
rou tes</w>
rou ille</w>
rou ge-
rouge- orangé</w>
rou et</w>
ron din</w>
rol ling</w>
rol et</w>
rock er</w>
rocail leuse</w>
ro u</w>
ro r</w>
ro quet</w>
ro dgers</w>
ro cks</w>
rlan d
ris é</w>
ris que</w>
rin çant</w>
ridi cules</w>
ric an</w>
ri te</w>
ri stes</w>
ri ssant</w>
ri l</w>
ri da</w>
ri b
rib bon</w>
rgi ste</w>
reç u</w>
reç oi
reçoi vent</w>
retrai te</w>
retourn er</w>
retourn ent</w>
restau r
restaur ants</w>
respec tivement</w>
respec tifs</w>
res sources</w>
res sort</w>
res sembler</w>
res pon
respon sable</w>
res pirer</w>
res pirat
respirat oire</w>
renver ser</w>
ren omm
ren du</w>
ren contr
rempli es</w>
remor queur</w>
rem porter</w>
rem bar
rembar de</w>
rejoin dre</w>
regard ée</w>
regard s</w>
regar dés</w>
regar dées</w>
regar dez</w>
recy c
recyc lage</w>
rectangul aire</w>
recou vrent</w>
reconstitu tion</w>
rebon dissent</w>
re z</w>
re vient</w>
re trouvent</w>
re trait</w>
re tour</w>
re tirées</w>
re tirée</w>
re tirant</w>
re tard</w>
re péré</w>
re prenant</w>
re por
repor tage</w>
re passer</w>
re passe</w>
re montant</w>
re levé</w>
re levant</w>
re cue
ray o
rayo la</w>
rat é</w>
rassembl é</w>
rassembl er</w>
ras ée</w>
rappro cher</w>
rappro chant</w>
rap portant</w>
rap port</w>
ran tes</w>
ran te</w>
ran ien</w>
ran ch</w>
ran ce</w>
ram pent</w>
ram pant</w>
ram assé</w>
rai son</w>
rafraîchi ssements</w>
rafraîchi ssante</w>
raff ute</w>
raff in
raf e</w>
ra w
ra ci
raci nes</w>
r ôle</w>
r â
r way</w>
r oie</w>
r eur</w>
r attraper</w>
r aille</w>
quoti diennes</w>
quill ages</w>
quat er
quater back</w>
quar te</w>
qu eu
queu es</w>
qu ets</w>
qu asi
quasi ment</w>
qu ants</w>
qu ante</w>
qu ad
pén étrer</w>
pén ètre</w>
péli can</w>
pédal ent</w>
pé tri
pé rer</w>
pé nombre</w>
pé ni
péni blement</w>
pé des
pédes tre</w>
pé dales</w>
pè des</w>
pâ tu
py l
pyl ô
pupi tres</w>
pun ch</w>
pulvéri sent</w>
pui ssant</w>
pu s</w>
préserv atifs</w>
présentat eur</w>
présen tes</w>
présen ce</w>
prépar ée</w>
prépar é</w>
prél asse</w>
précipi tent</w>
pré sent</w>
pré -
proté geant</w>
protège- oreilles</w>
protè gent</w>
protes ter</w>
protes tent</w>
prote c
propri été</w>
pron once</w>
promen é</w>
promen eur</w>
progra mmes</w>
prod uction</w>
pro jette</w>
pro ces
pro blème</w>
pro -
princes se</w>
prin cipal</w>
pri mi
primi tif</w>
pres sion</w>
pres se-
prati quement</w>
prati quants</w>
pr êtes</w>
pr udemment</w>
pr eu
preu ve</w>
pr ess
press o</w>
pow er</w>
pour suivi</w>
pour suivent</w>
poudr euse</w>
pou vons</w>
pou lies</w>
pou lie</w>
pou les</w>
pou le</w>
pou d
post- it</w>
positionn é</w>
posi tions</w>
pos ture</w>
pos tales</w>
porte- vélos</w>
porte- mon
porte-mon n
porte-monn aie</w>
por tu
por tait</w>
por cel
pop si
pollu tion</w>
pol ystyrène</w>
poin tée</w>
poin ts</w>
poin tent</w>
poign et</w>
poign ar
poi v
poi trines</w>
poi rier</w>
poi r</w>
po toir</w>
po mé
pomé ranien</w>
po mm
po k
pok em
pokem on</w>
po chette</w>
pli ée</w>
pli ent</w>
plat es</w>
plan tent</w>
plan chiste</w>
plaisan tant</w>
plaisan ci
plaisanci ers</w>
plaisan ce</w>
pla çant</w>
pla y</w>
pla y
pla queur</w>
pla cé</w>
pla ces</w>
pla cer</w>
pla cent</w>
pit bull</w>
pissen lit</w>
pique- ni
pingou ins</w>
pilo tage</w>
pil ot
pian iste</w>
pi ton</w>
pi ro
pi o
pi c
photographi que</w>
photographi ant</w>
phot o
pharma cie</w>
percu té</w>
per roquet</w>
per met</w>
per le</w>
per dant</w>
per cée</w>
per chiste</w>
pen ske</w>
pen n</w>
pen du</w>
pen dante</w>
peluch euses</w>
peluch euse</w>
pellet ées</w>
pellet er</w>
pel otes</w>
pein tres</w>
pe ace</w>
paysa ger</w>
pau vreté</w>
pau vres</w>
patrou illent</w>
patrio tique</w>
patin euses</w>
patien ce</w>
pati ents</w>
passionn és</w>
passionn ément</w>
passa gère</w>
pass ées</w>
pass oire</w>
pas tel</w>
particu lière</w>
parti tions</w>
parti ment</w>
pare- brise</w>
parallè le</w>
paral ympiques</w>
parachuti sme</w>
par ty</w>
par terre</w>
par tent</w>
par ois</w>
par is</w>
par fu
par dessus</w>
par court</w>
par courent</w>
par c
parc mètre</w>
par ap
parap ente</w>
panor ama</w>
pan tes</w>
pan ad
panad as</w>
pan a
pana che</w>
pal ettes</w>
pai ssent</w>
paga yer</w>
pad dle</w>
pa vant</w>
pa trons</w>
pa quets</w>
pa d</w>
pa c
pa b
pab st</w>
p tant</w>
p rière</w>
p per
p es
pes ant</w>
p aux</w>
oxy gène</w>
ow a</w>
ouv rent</w>
ou vertes</w>
ou t
oti ves</w>
ot hi
ornemen tal</w>
ori oles</w>
ori ente</w>
organi sé</w>
organi sent</w>
organi se</w>
organi sation</w>
or teils</w>
or esc
or ateur</w>
or ak</w>
op pose</w>
op en</w>
onn ettes</w>
ondul és</w>
on ni
on -
olo gues</w>
oi tation</w>
oi gnant</w>
off rant</w>
off er
occu per</w>
occu pant</w>
oc re</w>
oc e
oc ci
occi den
oc -
oc- notes</w>
observ ateurs</w>
obser vation</w>
ob er
o vi
o ping</w>
o mique</w>
o li
o eil</w>
o bli
o ak
oak land</w>
négli gée</w>
négli gemment</w>
nécess aire</w>
né on</w>
né go
né er
néer lan
néerlan d
nu ances</w>
nouveau- mexique</w>
nourri ssent</w>
nourri r</w>
nou no
nouno u</w>
noeu ds</w>
no tamment</w>
nive ler</w>
nin j
ninj a</w>
ni té</w>
ni ture</w>
ni en</w>
ni d</w>
ni a</w>
nes ota</w>
nei ges</w>
ne e
nee dle</w>
nave t
nat ure
nag ement</w>
n és</w>
n ot
n os</w>
n k</w>
n eurs</w>
n ers</w>
n er
n el</w>
n ap
mû re</w>
métal lu
métallu rgiste</w>
médi as</w>
médi a</w>
mé tro
mé nag
mé ment</w>
mé m
mém oire</w>
mâ chant</w>
musulman e</w>
musici enne</w>
musi cale</w>
mus tang</w>
mus clée</w>
muni ci
munici paux</w>
multi tude</w>
multi média</w>
mu res</w>
mu ral</w>
mu ni</w>
mu g</w>
mp 3</w>
mousta ches</w>
mou stiquaire</w>
mou ssant</w>
mou le</w>
mou choir</w>
motocycli ste</w>
mord ille</w>
mord illant</w>
mor dent</w>
montr ée</w>
montr é</w>
moni teurs</w>
mon tés</w>
mon tée</w>
mon ture</w>
mon ticules</w>
mon s</w>
mon g
mong ol</w>
mon ade</w>
modè les</w>
moby lettes</w>
mo haw
mohaw k</w>
mo el
moel leux</w>
mo des
modes te</w>
mm age</w>
mm a</w>
mix er</w>
mix e</w>
minuti eusement</w>
minuti euse</w>
mini- jupe</w>
mini- golf</w>
mini stra
mini jupes</w>
mini jupe</w>
mini at
miniat ures</w>
min nesota</w>
min eurs</w>
mil liers</w>
mi me</w>
mi ke</w>
mi chi
michi gan</w>
mi che</w>
mexic ains</w>
meu lage</w>
mesu rant</w>
mes ur
men tation</w>
mcdonal d</w>
mc do</w>
mauv aise</w>
mauv ais</w>
mau ves</w>
mau ve</w>
matéri aux</w>
mati ère</w>
matel assé</w>
matel ass
matelass ée</w>
mat ure</w>
mat hé
mathé matiques</w>
mat er
mat ador</w>
mas sage</w>
mas quant</w>
mas cul
mascul ins</w>
marécag eux</w>
marécag euse</w>
marti al</w>
mari times</w>
mari onnettes</w>
mari ent</w>
march ands</w>
march ande</w>
mar x</w>
mar tini</w>
mar teaux</w>
mar te
mar quant</w>
mar ier</w>
mar a
mara cas</w>
maqu illés</w>
maqu ill
maquill euse</w>
manu cure</w>
manifes te</w>
mani velle</w>
man œuvre</w>
mal heureuse</w>
mal adroitement</w>
maj ori
maj eur</w>
main tenant</w>
main tenance</w>
mail le</w>
mai sonnette</w>
ma çonnerie</w>
m éri
m om
m eur</w>
m e-
m asse</w>
m ad
m ac
mac book</w>
léz ard</w>
lég ères</w>
lé gers</w>
lè vre</w>
lè che-
luxu riant</w>
lumin aires</w>
longu eurs</w>
long temps</w>
lon nant</w>
loin taine</w>
locom otives</w>
lo u</w>
lo oping</w>
lo o</w>
lo cales</w>
liv rent</w>
lig ator</w>
li tt
li sées</w>
li ssent</w>
li ques</w>
li que</w>
li monade</w>
li f
lif e</w>
li bé
li b
lib ère</w>
let tre</w>
let er
leter re</w>
les -
les- mêmes</w>
le- ci</w>
le m</w>
le br
lebr on</w>
lav eurs</w>
lav ande</w>
latin o</w>
lar s</w>
lar mes</w>
lancer -
lancer- franc</w>
lanc e-
lance- pierre</w>
lan ta</w>
lan ces</w>
lampad aires</w>
lam pes</w>
laiss er</w>
lai tue</w>
lai sses</w>
lai ssent</w>
labou rant</w>
la vage</w>
la tions</w>
la tin</w>
la mment</w>
l ouvre</w>
l otte</w>
l ois</w>
l eu
leu rement</w>
l ein</w>
l at
lat érale</w>
l agée</w>
ki t</w>
ke ba
keba b</w>
ka wasaki</w>
k épi</w>
k u
k om
k lein</w>
k e-
k arts</w>
jus tice</w>
jum ping</w>
jum elle</w>
jum eaux</w>
jui ve</w>
jui fs</w>
jui f</w>
ju do</w>
ju ché</w>
joy euse</w>
journali stes</w>
jour d&apos;</w>
join tes</w>
join t</w>
joh ns</w>
jogg euse</w>
jogg eur</w>
jo e</w>
jeu di</w>
jet -s
jet-s ki</w>
jer rican</w>
jar re
jam es</w>
jam bières</w>
jailli ssent</w>
jack son</w>
ja cu
jacu zzi</w>
j ésus</w>
j à</w>
j oignant</w>
j im</w>
ital ien</w>
ital ie</w>
isol ée</w>
isol é</w>
is ra
is me</w>
is l
irri té</w>
intéres sante</w>
intégra l</w>
intégr alement</w>
intitu lée</w>
inti mité</w>
